{
  "version": "1.0",
  "truncation": null,
  "padding": null,
  "added_tokens": [
    {
      "id": 0,
      "content": "<pad>",
      "single_word": false,
      "lstrip": false,
      "rstrip": false,
      "normalized": false,
      "special": true
    },
    {
      "id": 1,
      "content": "<unk>",
      "single_word": false,
      "lstrip": false,
      "rstrip": false,
      "normalized": false,
      "special": true
    },
    {
      "id": 2,
      "content": "<bos>",
      "single_word": false,
      "lstrip": false,
      "rstrip": false,
      "normalized": false,
      "special": true
    },
    {
      "id": 3,
      "content": "<eos>",
      "single_word": false,
      "lstrip": false,
      "rstrip": false,
      "normalized": false,
      "special": true
    }
  ],
  "normalizer": null,
  "pre_tokenizer": {
    "type": "ByteLevel",
    "add_prefix_space": true,
    "trim_offsets": true,
    "use_regex": true
  },
  "post_processor": null,
  "decoder": {
    "type": "ByteLevel",
    "add_prefix_space": true,
    "trim_offsets": true,
    "use_regex": true
  },
  "model": {
    "type": "BPE",
    "dropout": null,
    "unk_token": "<unk>",
    "continuing_subword_prefix": null,
    "end_of_word_suffix": null,
    "fuse_unk": false,
    "byte_fallback": false,
    "ignore_merges": false,
    "vocab": {
      "<pad>": 0,
      "<unk>": 1,
      "<bos>": 2,
      "<eos>": 3,
      "!": 4,
      "\"": 5,
      "#": 6,
      "$": 7,
      "%": 8,
      "&": 9,
      "'": 10,
      "(": 11,
      ")": 12,
      "*": 13,
      "+": 14,
      ",": 15,
      "-": 16,
      ".": 17,
      "/": 18,
      "0": 19,
      "1": 20,
      "2": 21,
      "3": 22,
      "4": 23,
      "5": 24,
      "6": 25,
      "7": 26,
      "8": 27,
      "9": 28,
      ":": 29,
      ";": 30,
      "<": 31,
      "=": 32,
      ">": 33,
      "?": 34,
      "@": 35,
      "A": 36,
      "B": 37,
      "C": 38,
      "D": 39,
      "E": 40,
      "F": 41,
      "G": 42,
      "H": 43,
      "I": 44,
      "J": 45,
      "K": 46,
      "L": 47,
      "M": 48,
      "N": 49,
      "O": 50,
      "P": 51,
      "Q": 52,
      "R": 53,
      "S": 54,
      "T": 55,
      "U": 56,
      "V": 57,
      "W": 58,
      "X": 59,
      "Y": 60,
      "Z": 61,
      "[": 62,
      "\\": 63,
      "]": 64,
      "^": 65,
      "_": 66,
      "`": 67,
      "a": 68,
      "b": 69,
      "c": 70,
      "d": 71,
      "e": 72,
      "f": 73,
      "g": 74,
      "h": 75,
      "i": 76,
      "j": 77,
      "k": 78,
      "l": 79,
      "m": 80,
      "n": 81,
      "o": 82,
      "p": 83,
      "q": 84,
      "r": 85,
      "s": 86,
      "t": 87,
      "u": 88,
      "v": 89,
      "w": 90,
      "x": 91,
      "y": 92,
      "z": 93,
      "{": 94,
      "}": 95,
      "~": 96,
      "¡": 97,
      "¢": 98,
      "£": 99,
      "¤": 100,
      "¥": 101,
      "¦": 102,
      "§": 103,
      "¨": 104,
      "©": 105,
      "ª": 106,
      "«": 107,
      "¬": 108,
      "®": 109,
      "¯": 110,
      "°": 111,
      "±": 112,
      "²": 113,
      "³": 114,
      "´": 115,
      "µ": 116,
      "¶": 117,
      "·": 118,
      "¸": 119,
      "¹": 120,
      "º": 121,
      "»": 122,
      "¼": 123,
      "½": 124,
      "¾": 125,
      "¿": 126,
      "Â": 127,
      "Ã": 128,
      "Ä": 129,
      "Å": 130,
      "Æ": 131,
      "Ç": 132,
      "È": 133,
      "É": 134,
      "Ê": 135,
      "Ë": 136,
      "Ì": 137,
      "Î": 138,
      "Ï": 139,
      "Ð": 140,
      "Ñ": 141,
      "Ò": 142,
      "Ô": 143,
      "Õ": 144,
      "Ö": 145,
      "×": 146,
      "Ø": 147,
      "Ù": 148,
      "Ú": 149,
      "Û": 150,
      "à": 151,
      "á": 152,
      "â": 153,
      "ã": 154,
      "ä": 155,
      "å": 156,
      "æ": 157,
      "ç": 158,
      "è": 159,
      "é": 160,
      "ê": 161,
      "ë": 162,
      "ì": 163,
      "í": 164,
      "ï": 165,
      "ð": 166,
      "Ġ": 167,
      "Ģ": 168,
      "ģ": 169,
      "Ĥ": 170,
      "ĥ": 171,
      "Ħ": 172,
      "ħ": 173,
      "Ĩ": 174,
      "ĩ": 175,
      "Ī": 176,
      "ī": 177,
      "Ĭ": 178,
      "ĭ": 179,
      "Į": 180,
      "į": 181,
      "İ": 182,
      "ı": 183,
      "Ĳ": 184,
      "ĳ": 185,
      "Ĵ": 186,
      "ĵ": 187,
      "Ķ": 188,
      "ķ": 189,
      "ĸ": 190,
      "Ĺ": 191,
      "ĺ": 192,
      "Ļ": 193,
      "ļ": 194,
      "Ľ": 195,
      "ľ": 196,
      "Ŀ": 197,
      "ŀ": 198,
      "Ł": 199,
      "ł": 200,
      "Ń": 201,
      "es": 202,
      "Ġd": 203,
      "on": 204,
      "Ġt": 205,
      "en": 206,
      "Ġa": 207,
      "Ã©": 208,
      "in": 209,
      "er": 210,
      "Ġl": 211,
      "Ġp": 212,
      "ti": 213,
      "Ġs": 214,
      "re": 215,
      "Ġc": 216,
      "an": 217,
      "ou": 218,
      "Ġth": 219,
      "is": 220,
      "Ġde": 221,
      "or": 222,
      "it": 223,
      "tion": 224,
      "ent": 225,
      "Ġthe": 226,
      "Ġm": 227,
      "ar": 228,
      "al": 229,
      "Ġf": 230,
      "Ġo": 231,
      "qu": 232,
      "Ġe": 233,
      "at": 234,
      "ro": 235,
      "le": 236,
      "Ġin": 237,
      "Ġb": 238,
      "ation": 239,
      "Ġw": 240,
      "om": 241,
      "Ġof": 242,
      "Ġn": 243,
      "ur": 244,
      "Ġan": 245,
      "ic": 246,
      "un": 247,
      "ed": 248,
      "ment": 249,
      "Ġla": 250,
      "il": 251,
      "ĠC": 252,
      "as": 253,
      "ing": 254,
      "el": 255,
      "Ġto": 256,
      "Ġr": 257,
      "Ġh": 258,
      "ĠÃ": 259,
      "Ġand": 260,
      "Ġqu": 261,
      "our": 262,
      "us": 263,
      "Ġet": 264,
      "Ġle": 265,
      "ĠI": 266,
      "Ġv": 267,
      "te": 268,
      "ce": 269,
      "Ġdes": 270,
      "Ġre": 271,
      "ra": 272,
      "ve": 273,
      "ĠT": 274,
      "Ġcon": 275,
      "ĠA": 276,
      "Ġg": 277,
      "Ġles": 278,
      "ĠS": 279,
      "et": 280,
      "si": 281,
      "ir": 282,
      "ant": 283,
      "ĠÃł": 284,
      "Ġpro": 285,
      "Ġen": 286,
      "Ġun": 287,
      "ch": 288,
      "ri": 289,
      "est": 290,
      "ol": 291,
      "ĠL": 292,
      "ĠP": 293,
      "ec": 294,
      "ut": 295,
      "ĠM": 296,
      "Ã¨": 297,
      "Ġpar": 298,
      "me": 299,
      "Ġ(": 300,
      "Ġ1": 301,
      "Ġcom": 302,
      "id": 303,
      "ad": 304,
      "ul": 305,
      "pp": 306,
      "Ġon": 307,
      "se": 308,
      "Ġy": 309,
      "Ġdu": 310,
      "ans": 311,
      "ot": 312,
      "ig": 313,
      "Ġ2": 314,
      "Ġfor": 315,
      "ter": 316,
      "Ġ-": 317,
      "ĠD": 318,
      "Ã©s": 319,
      "im": 320,
      "âĢ": 321,
      "ux": 322,
      "ous": 323,
      "ag": 324,
      "ĠE": 325,
      "ac": 326,
      "ĠÃ©": 327,
      "00": 328,
      "ab": 329,
      "he": 330,
      "ers": 331,
      "ire": 332,
      "ci": 333,
      "Ġj": 334,
      "res": 335,
      "os": 336,
      "ort": 337,
      "..": 338,
      "ie": 339,
      "Ġbe": 340,
      "ĠN": 341,
      "Ġque": 342,
      "Ġpour": 343,
      "ĠR": 344,
      "Ġis": 345,
      "ne": 346,
      "ver": 347,
      "Ġsu": 348,
      "ay": 349,
      "ĠdÃ©": 350,
      "ff": 351,
      "and": 352,
      "ĠB": 353,
      "Ġthat": 354,
      "am": 355,
      "que": 356,
      "ais": 357,
      "ĠJ": 358,
      "âĢĻ": 359,
      "ain": 360,
      "ow": 361,
      "tr": 362,
      "Ġex": 363,
      "ĠO": 364,
      "end": 365,
      "ion": 366,
      "Ġpl": 367,
      "ations": 368,
      "Ġpr": 369,
      "ly": 370,
      "Ġas": 371,
      "em": 372,
      "Ġyou": 373,
      "Ġwh": 374,
      "out": 375,
      "ont": 376,
      "ĠW": 377,
      "Ġdans": 378,
      "Ġau": 379,
      "Ġne": 380,
      "ĠF": 381,
      "op": 382,
      "ure": 383,
      "ate": 384,
      "Ġch": 385,
      "Ġal": 386,
      "ith": 387,
      "Ġpas": 388,
      "Ġsur": 389,
      "ĠH": 390,
      "od": 391,
      "Ġit": 392,
      "Ġac": 393,
      "ess": 394,
      "ill": 395,
      "ait": 396,
      "Ġor": 397,
      "sion": 398,
      "ĠG": 399,
      "uc": 400,
      "tÃ©": 401,
      "ĠThe": 402,
      "Ġest": 403,
      "iv": 404,
      "ere": 405,
      "ĠrÃ©": 406,
      "Ġwith": 407,
      "th": 408,
      "Ġune": 409,
      "ts": 410,
      "ati": 411,
      "Ġse": 412,
      "itÃ©": 413,
      "Ã©e": 414,
      "'s": 415,
      "les": 416,
      "omm": 417,
      "um": 418,
      "ist": 419,
      "Ã©r": 420,
      "ement": 421,
      "Ġcomp": 422,
      "Ġqui": 423,
      "ance": 424,
      "st": 425,
      "Ġme": 426,
      "oc": 427,
      "tic": 428,
      "tions": 429,
      "ud": 430,
      "if": 431,
      "Ġst": 432,
      "ien": 433,
      "ity": 434,
      "Ġnot": 435,
      "Ġ?": 436,
      "Ġ200": 437,
      "Ġare": 438,
      "tre": 439,
      "orm": 440,
      "bl": 441,
      "aire": 442,
      "imp": 443,
      "oun": 444,
      "Ġat": 445,
      "Ġapp": 446,
      "ue": 447,
      "ĠIn": 448,
      "ĠU": 449,
      "vel": 450,
      "ence": 451,
      "Ġpe": 452,
      "ons": 453,
      "ld": 454,
      "ai": 455,
      "ap": 456,
      "au": 457,
      "ard": 458,
      "Ġtr": 459,
      "urs": 460,
      "Ġres": 461,
      "Ġby": 462,
      "Ġso": 463,
      "Ġmo": 464,
      "iti": 465,
      "pl": 466,
      "Ãª": 467,
      "Ġha": 468,
      "ces": 469,
      "Ġtra": 470,
      "igh": 471,
      "Ġou": 472,
      "age": 473,
      "erv": 474,
      "ke": 475,
      "ond": 476,
      "Ġce": 477,
      "able": 478,
      "onn": 479,
      "Ã©es": 480,
      "ĠV": 481,
      "...": 482,
      "Ġcomm": 483,
      "ale": 484,
      "anad": 485,
      "ang": 486,
      "ven": 487,
      "ments": 488,
      "Ã¨re": 489,
      "ord": 490,
      "Ġad": 491,
      "Ġdo": 492,
      "Ġcont": 493,
      "form": 494,
      "rop": 495,
      "ĠY": 496,
      "ies": 497,
      "ĠTh": 498,
      "Ġsh": 499,
      "Ġ3": 500,
      "ust": 501,
      "ĠLe": 502,
      "Ġwas": 503,
      "ques": 504,
      "rom": 505,
      "cl": 506,
      "Ġplus": 507,
      "Ġimp": 508,
      "Ġ19": 509,
      "Ġaux": 510,
      "Ġthis": 511,
      "elle": 512,
      "ine": 513,
      "og": 514,
      "Ġinter": 515,
      "ĠComm": 516,
      "ique": 517,
      "Ġdis": 518,
      "ĠJe": 519,
      "air": 520,
      "Ġsa": 521,
      "ble": 522,
      "Ġk": 523,
      "pr": 524,
      "all": 525,
      "ect": 526,
      "Ġav": 527,
      "ould": 528,
      "Ġper": 529,
      "Ġhe": 530,
      "duc": 531,
      "ct": 532,
      "ĠCanad": 533,
      "ice": 534,
      "ell": 535,
      "ber": 536,
      "Ġhave": 537,
      "up": 538,
      "Ġcons": 539,
      "Ġall": 540,
      "app": 541,
      "di": 542,
      "Ã©c": 543,
      "ational": 544,
      "aux": 545,
      "Ġave": 546,
      "ission": 547,
      "ite": 548,
      "ich": 549,
      "Ġfrom": 550,
      "ult": 551,
      "Ġsp": 552,
      "Ġwe": 553,
      "mes": 554,
      "oir": 555,
      "Ã©t": 556,
      "oin": 557,
      "li": 558,
      "der": 559,
      "rou": 560,
      "oi": 561,
      "ĠÂ": 562,
      "Ġar": 563,
      "Ġvous": 564,
      "Ġfin": 565,
      "ex": 566,
      "ants": 567,
      "ĠIl": 568,
      "Ġsont": 569,
      "ten": 570,
      "tif": 571,
      "Ġje": 572,
      "av": 573,
      "une": 574,
      "tit": 575,
      "Âł": 576,
      "ubl": 577,
      "Ġaut": 578,
      "Ã¨s": 579,
      "ction": 580,
      "gra": 581,
      "ens": 582,
      "ors": 583,
      "Ġil": 584,
      "ail": 585,
      "Ġavec": 586,
      "min": 587,
      "Ã©n": 588,
      "Ġ\"": 589,
      "'t": 590,
      "oy": 591,
      "ign": 592,
      "Ġgo": 593,
      "aut": 594,
      "ore": 595,
      "Ġag": 596,
      "ĠLa": 597,
      "Ġacc": 598,
      "ise": 599,
      "ier": 600,
      "ĠÃ©t": 601,
      "Ġdi": 602,
      "Ġent": 603,
      "ace": 604,
      "lement": 605,
      "ication": 606,
      "ĠUn": 607,
      "ome": 608,
      "ures": 609,
      "ork": 610,
      "tiv": 611,
      "Ġus": 612,
      "Ġparti": 613,
      "Ġmar": 614,
      "Ġrec": 615,
      "per": 616,
      "ated": 617,
      "gram": 618,
      "port": 619,
      "ĠCanada": 620,
      "ge": 621,
      "ision": 622,
      "ĠLes": 623,
      "ear": 624,
      "bre": 625,
      "Ġli": 626,
      "Ġman": 627,
      "Ġwill": 628,
      "urop": 629,
      "ern": 630,
      "Ġco": 631,
      "ide": 632,
      "Ġserv": 633,
      "aires": 634,
      "ight": 635,
      "ici": 636,
      "its": 637,
      "ary": 638,
      "gan": 639,
      "Ġab": 640,
      "tive": 641,
      "til": 642,
      "Ġ4": 643,
      "Ġma": 644,
      "ĠCon": 645,
      "__": 646,
      "ution": 647,
      "Ġcan": 648,
      "Ġpol": 649,
      "ose": 650,
      "Ġpers": 651,
      "ĠRe": 652,
      "par": 653,
      "rÃ©": 654,
      "ui": 655,
      "gh": 656,
      "Ġpre": 657,
      "Ġ5": 658,
      "Ġeff": 659,
      "Ġte": 660,
      "Ġam": 661,
      "ette": 662,
      "ĠWh": 663,
      "ĠEn": 664,
      "Ã©ri": 665,
      "so": 666,
      "ase": 667,
      "Ġcl": 668,
      "Ã©g": 669,
      "ong": 670,
      "Ġprov": 671,
      "tat": 672,
      "ents": 673,
      "Ġind": 674,
      "ices": 675,
      "Ġno": 676,
      ").": 677,
      "cip": 678,
      "ĠAn": 679,
      "ours": 680,
      "Ġwhich": 681,
      "cial": 682,
      "ĠÃª": 683,
      "Ġconc": 684,
      "ĠCh": 685,
      "Ġont": 686,
      "ays": 687,
      "che": 688,
      "ĠPar": 689,
      "Ġsec": 690,
      "ĠÃ©tÃ©": 691,
      "ĠYou": 692,
      "ther": 693,
      "iz": 694,
      "Ġ:": 695,
      "Ġrel": 696,
      "01": 697,
      "one": 698,
      "ĠK": 699,
      "ĠIt": 700,
      "ille": 701,
      "ph": 702,
      "Ġhas": 703,
      "Ã´": 704,
      "ĠQ": 705,
      "rib": 706,
      "ish": 707,
      "Ġoff": 708,
      "are": 709,
      "Ġresp": 710,
      "Ġreg": 711,
      "Ġout": 712,
      "ari": 713,
      "ĠprÃ©": 714,
      "Ġter": 715,
      "du": 716,
      "ys": 717,
      "ĠDe": 718,
      "Ġ!": 719,
      "ob": 720,
      "ak": 721,
      "osi": 722,
      "),": 723,
      "ert": 724,
      "ves": 725,
      "itÃ©s": 726,
      "ally": 727,
      "ois": 728,
      "ĠâĢ": 729,
      "Ġnous": 730,
      "Ġpubl": 731,
      "Ġproc": 732,
      "oll": 733,
      "Ġprogram": 734,
      "Ġprop": 735,
      "Ġfait": 736,
      "ach": 737,
      "lle": 738,
      "Ãł": 739,
      "Ġtrans": 740,
      "nement": 741,
      "Ã©sent": 742,
      "ĠÃªtre": 743,
      "ĠCommission": 744,
      "ins": 745,
      "ip": 746,
      "Ġpos": 747,
      "Ġob": 748,
      "Ġins": 749,
      "Ġtout": 750,
      "iss": 751,
      "Ġyour": 752,
      "now": 753,
      "Ġits": 754,
      "Ġdire": 755,
      "Ġpri": 756,
      "Ġmin": 757,
      "Ġcommun": 758,
      "her": 759,
      "formation": 760,
      "Ġ199": 761,
      "con": 762,
      "ĠOn": 763,
      "sid": 764,
      "Ġem": 765,
      "Ġsi": 766,
      "200": 767,
      "use": 768,
      "ities": 769,
      "ĠPro": 770,
      "Ġsub": 771,
      "Ġ6": 772,
      "tes": 773,
      "Ġintern": 774,
      "ress": 775,
      "Ã©d": 776,
      "tem": 777,
      "ĠHe": 778,
      "Ġtheir": 779,
      "roup": 780,
      "Ġdem": 781,
      "act": 782,
      "ll": 783,
      "Ġser": 784,
      "ĠNo": 785,
      "Ġson": 786,
      "ouver": 787,
      "ass": 788,
      "isation": 789,
      "ive": 790,
      "Ġtu": 791,
      "els": 792,
      "ok": 793,
      "jet": 794,
      "Ġknow": 795,
      "Ġstr": 796,
      "Ġpart": 797,
      "Ġtrav": 798,
      "ia": 799,
      "Ġgr": 800,
      "ues": 801,
      "Ġwork": 802,
      "Ġdiff": 803,
      "Ġdon": 804,
      "Ġup": 805,
      "Ġint": 806,
      "velop": 807,
      "Ġentre": 808,
      "Ã¨me": 809,
      "ouv": 810,
      "ticle": 811,
      "fin": 812,
      "Ġdev": 813,
      "Ġbeen": 814,
      "ĠCom": 815,
      "Ġorgan": 816,
      "Ġses": 817,
      "ĠWe": 818,
      "olog": 819,
      "Ġass": 820,
      "Ġbut": 821,
      "Ġsupp": 822,
      "Ġthere": 823,
      "Ġcomme": 824,
      "rit": 825,
      "ative": 826,
      "Ġcette": 827,
      "Ġmem": 828,
      "iques": 829,
      "Ã©l": 830,
      "Ġwere": 831,
      "Ġinc": 832,
      "urope": 833,
      "Ġmais": 834,
      "enti": 835,
      "ime": 836,
      "Ġcar": 837,
      "ted": 838,
      "emp": 839,
      "ient": 840,
      "Ġdro": 841,
      "Ġmy": 842,
      "ound": 843,
      "Ġother": 844,
      "Ġform": 845,
      "Ġone": 846,
      "ense": 847,
      "Ġces": 848,
      "ĠrÃ©g": 849,
      "iÃ¨re": 850,
      "elles": 851,
      "Ġ7": 852,
      "Ġexp": 853,
      "Ã§": 854,
      "ial": 855,
      "Ġthey": 856,
      "ack": 857,
      "ĠdÃ©c": 858,
      "Ġconf": 859,
      "ande": 860,
      "ount": 861,
      "Ġbien": 862,
      "Ġrequ": 863,
      "ĠSt": 864,
      "Ġnon": 865,
      "de": 866,
      "cc": 867,
      "vir": 868,
      "Ġmod": 869,
      "Ġimport": 870,
      "ost": 871,
      "ile": 872,
      "ric": 873,
      "estion": 874,
      "ĠÂ«": 875,
      "Ġmon": 876,
      "Ġ9": 877,
      "ind": 878,
      "ese": 879,
      "Ġproduc": 880,
      "Ġservices": 881,
      "ĠTu": 882,
      "viron": 883,
      "Ġany": 884,
      "Ġ8": 885,
      "Ġleur": 886,
      "ww": 887,
      "chn": 888,
      "cep": 889,
      "ĠÃī": 890,
      "ĠAr": 891,
      "Ġrem": 892,
      "Ġsou": 893,
      "Ġalso": 894,
      "conom": 895,
      "val": 896,
      "Ġwould": 897,
      "oint": 898,
      "Ġrapp": 899,
      "Ġta": 900,
      "clud": 901,
      "'m": 902,
      "Ġabout": 903,
      "anc": 904,
      "Ġmore": 905,
      "eral": 906,
      "teur": 907,
      "aient": 908,
      "Ġnom": 909,
      "Ġwho": 910,
      "ĠrÃ©s": 911,
      "Ġes": 912,
      "ions": 913,
      "opp": 914,
      "Ġfaire": 915,
      "abl": 916,
      "ĠgÃ©n": 917,
      "tern": 918,
      "reat": 919,
      "vent": 920,
      "ĠEurope": 921,
      "Ġann": 922,
      "ussi": 923,
      "ĠQu": 924,
      "Ġyear": 925,
      "ĠThis": 926,
      "Ġtou": 927,
      "ourn": 928,
      "uation": 929,
      "util": 930,
      "Ġpeut": 931,
      "ical": 932,
      "Ġdevelop": 933,
      "Ãªme": 934,
      "Ġwhat": 935,
      "gal": 936,
      "'re": 937,
      "vern": 938,
      "uis": 939,
      "jec": 940,
      "abil": 941,
      "ĠAs": 942,
      "ĠprÃ©sent": 943,
      "Ġpays": 944,
      "Ã¨res": 945,
      "Ġactiv": 946,
      "ON": 947,
      "Ġmes": 948,
      "Ġunder": 949,
      "Ġmain": 950,
      "Ġshould": 951,
      "ĠÃ§": 952,
      "ian": 953,
      "ĠÃ§a": 954,
      "Ġop": 955,
      "lec": 956,
      "Ġperm": 957,
      "ild": 958,
      "ink": 959,
      "Ġdonn": 960,
      "Ġcap": 961,
      "Ġvis": 962,
      "ertain": 963,
      "ited": 964,
      "Ġcas": 965,
      "Ġhad": 966,
      "ats": 967,
      "Ġconcern": 968,
      "ticul": 969,
      "bil": 970,
      "ouve": 971,
      "ual": 972,
      "ences": 973,
      "cher": 974,
      "Ġ10": 975,
      "ry": 976,
      "ales": 977,
      "ploy": 978,
      "arg": 979,
      "Ġsy": 980,
      "seil": 981,
      "Ġneed": 982,
      "vention": 983,
      "ep": 984,
      "____": 985,
      "Ġsit": 986,
      "ulation": 987,
      "Ġdisp": 988,
      "ade": 989,
      "Ġgu": 990,
      "Ġ0": 991,
      "enc": 992,
      "ann": 993,
      "Ã®": 994,
      "Ġtime": 995,
      "Ġro": 996,
      "acc": 997,
      "fer": 998,
      "ene": 999,
      "Ġpersonn": 1000,
      "Ġgroup": 1001,
      "Ġve": 1002,
      "amp": 1003,
      "Ġjus": 1004,
      "Ã»": 1005,
      "ises": 1006,
      "Ġtechn": 1007,
      "ast": 1008,
      "Ġpres": 1009,
      "Ġph": 1010,
      "Ġparticul": 1011,
      "Ġver": 1012,
      "ages": 1013,
      "ook": 1014,
      "Ġdeux": 1015,
      "Ãī": 1016,
      "Ġhis": 1017,
      "dition": 1018,
      "ory": 1019,
      "rie": 1020,
      "sible": 1021,
      "Ġpublic": 1022,
      "ings": 1023,
      "velopp": 1024,
      "ree": 1025,
      "Ġsome": 1026,
      "ante": 1027,
      "endre": 1028,
      "Ġinternational": 1029,
      "Ġbet": 1030,
      "Ġ201": 1031,
      "Ġmat": 1032,
      "Ġif": 1033,
      "Ġprin": 1034,
      "yp": 1035,
      "tt": 1036,
      "Ã¨g": 1037,
      "Ġmemb": 1038,
      "ocu": 1039,
      "Ġnew": 1040,
      "we": 1041,
      "Ġinclud": 1042,
      "Ġthan": 1043,
      "ug": 1044,
      "osition": 1045,
      "ov": 1046,
      "ĠgÃ©nÃ©r": 1047,
      "Ġcent": 1048,
      "Ġlike": 1049,
      "ĠVous": 1050,
      "ĠSec": 1051,
      "Ġreport": 1052,
      "ah": 1053,
      "ĠAnd": 1054,
      "Ġtravail": 1055,
      "ES": 1056,
      "art": 1057,
      "Ġinformation": 1058,
      "19": 1059,
      "ivers": 1060,
      "olution": 1061,
      "gr": 1062,
      "pec": 1063,
      "Ġsign": 1064,
      "led": 1065,
      "ĠAl": 1066,
      "Ġmay": 1067,
      "ances": 1068,
      "Ġmet": 1069,
      "otre": 1070,
      "ause": 1071,
      "Ġrapport": 1072,
      "rait": 1073,
      "Ġrep": 1074,
      "Ġvie": 1075,
      "Ġover": 1076,
      "ources": 1077,
      "ood": 1078,
      "onne": 1079,
      "Ġhum": 1080,
      "Ġtous": 1081,
      "Ġ[": 1082,
      "Ġcor": 1083,
      "ĠWhat": 1084,
      "lÃ©": 1085,
      "Ã¢": 1086,
      "Ġcol": 1087,
      "Ġget": 1088,
      "ates": 1089,
      "tis": 1090,
      "ĠdÃ©velopp": 1091,
      "Ġcertain": 1092,
      "Ġthem": 1093,
      "Ġfe": 1094,
      "Ġbas": 1095,
      "Ġher": 1096,
      "Ġappl": 1097,
      "Ġour": 1098,
      "ks": 1099,
      "Ġnational": 1100,
      "Ġjust": 1101,
      "ely": 1102,
      "Ġ.": 1103,
      "istr": 1104,
      "Ġprocess": 1105,
      "Ġchang": 1106,
      "ils": 1107,
      "Ġinv": 1108,
      "Ġdur": 1109,
      "ĠEt": 1110,
      "ications": 1111,
      "Ġcontin": 1112,
      "Ġaff": 1113,
      "Ġright": 1114,
      "truc": 1115,
      "Ġpeu": 1116,
      "ating": 1117,
      "ĠNations": 1118,
      "Ġlong": 1119,
      "Ã¹": 1120,
      "Ġhere": 1121,
      "agra": 1122,
      "irst": 1123,
      "ystem": 1124,
      "Ġhim": 1125,
      "Ġprodu": 1126,
      "ĠPour": 1127,
      "Ġsoci": 1128,
      "ĠConseil": 1129,
      "Ġprincip": 1130,
      "Ġdisc": 1131,
      "rough": 1132,
      "utions": 1133,
      "Ġloc": 1134,
      "Ġspec": 1135,
      "ib": 1136,
      "Ġche": 1137,
      "aine": 1138,
      "ame": 1139,
      "ner": 1140,
      "insi": 1141,
      "Ġparticip": 1142,
      "uropÃ©": 1143,
      "und": 1144,
      "alth": 1145,
      "ris": 1146,
      "TI": 1147,
      "Ġatt": 1148,
      "Ġdid": 1149,
      "Ġaussi": 1150,
      "very": 1151,
      "ĠmÃªme": 1152,
      "Ġ12": 1153,
      "Ġenc": 1154,
      "ren": 1155,
      "Ġthese": 1156,
      "Ġpoliti": 1157,
      "Ġinto": 1158,
      "ĠNe": 1159,
      "Ġsuis": 1160,
      "ets": 1161,
      "Ġfac": 1162,
      "sem": 1163,
      "Ġprote": 1164,
      "Ġprof": 1165,
      "tats": 1166,
      "Ġnum": 1167,
      "Ġsuch": 1168,
      "Ġdocu": 1169,
      "Ġcro": 1170,
      "ounc": 1171,
      "ms": 1172,
      "ĠFor": 1173,
      "Ġcour": 1174,
      "Ġinf": 1175,
      "tique": 1176,
      "Ġfa": 1177,
      "ode": 1178,
      "Ġtemp": 1179,
      "Ġdec": 1180,
      "ĠeuropÃ©": 1181,
      "vernment": 1182,
      "ĠdÃ©p": 1183,
      "ĠSo": 1184,
      "ĠEx": 1185,
      "oth": 1186,
      "Ġpropos": 1187,
      "ject": 1188,
      "ature": 1189,
      "ied": 1190,
      "Ġmen": 1191,
      "Ġprojet": 1192,
      "Ġrev": 1193,
      "ĠEuropean": 1194,
      "agement": 1195,
      "Ġplan": 1196,
      "ables": 1197,
      "Ġtw": 1198,
      "ries": 1199,
      "ran": 1200,
      "ĠReg": 1201,
      "Un": 1202,
      "igne": 1203,
      "rac": 1204,
      "Ġprom": 1205,
      "iens": 1206,
      "ente": 1207,
      "CE": 1208,
      "Ġbl": 1209,
      "itte": 1210,
      "ieu": 1211,
      "oire": 1212,
      "Ġplace": 1213,
      "Ġ15": 1214,
      "ople": 1215,
      "Ġainsi": 1216,
      "Ġprem": 1217,
      "Ġonly": 1218,
      "eneral": 1219,
      "Ġwhen": 1220,
      "tu": 1221,
      "own": 1222,
      "isse": 1223,
      "ĠStat": 1224,
      "Ġquel": 1225,
      "ĠdÃ©veloppement": 1226,
      "Ġmond": 1227,
      "Ġsc": 1228,
      "ĠMin": 1229,
      "prÃ¨s": 1230,
      "atives": 1231,
      "Ġvotre": 1232,
      "Ġfinan": 1233,
      "ollow": 1234,
      "Ġappro": 1235,
      "Ġutil": 1236,
      "Ġpass": 1237,
      "Ġgouver": 1238,
      "Ġwant": 1239,
      "Ġlui": 1240,
      "ty": 1241,
      "Ġmill": 1242,
      "get": 1243,
      "fore": 1244,
      "Ġpoint": 1245,
      "lev": 1246,
      "Ġbec": 1247,
      "Ġfam": 1248,
      "Ġsuiv": 1249,
      "ouvel": 1250,
      "orte": 1251,
      "Ġshall": 1252,
      "Ġsupport": 1253,
      "com": 1254,
      "king": 1255,
      "ĠMar": 1256,
      "'ll": 1257,
      "ture": 1258,
      "enne": 1259,
      "ough": 1260,
      "000": 1261,
      "Ġcontrib": 1262,
      "Ġconn": 1263,
      "old": 1264,
      "ub": 1265,
      "oup": 1266,
      "Ġvo": 1267,
      "Ġparagra": 1268,
      "ights": 1269,
      "ister": 1270,
      "Ġleurs": 1271,
      "ĠMr": 1272,
      "Ġaccord": 1273,
      "ource": 1274,
      "Ġqual": 1275,
      "tim": 1276,
      "Ġim": 1277,
      "Ġhel": 1278,
      "Ġsystem": 1279,
      "ouncil": 1280,
      "ines": 1281,
      "als": 1282,
      "Ġuse": 1283,
      "Ġ$": 1284,
      "try": 1285,
      "ĠAm": 1286,
      "Ġrest": 1287,
      "Ġnombre": 1288,
      "Ġris": 1289,
      "ĠÃ©gal": 1290,
      "Ġfl": 1291,
      "Ġmust": 1292,
      "Ġprovid": 1293,
      "arm": 1294,
      "Ġelle": 1295,
      "Ġmont": 1296,
      "wn": 1297,
      "entre": 1298,
      "AR": 1299,
      "Ġsee": 1300,
      "Ã©ration": 1301,
      "ret": 1302,
      "ards": 1303,
      "Ġ20": 1304,
      "Ġ11": 1305,
      "ĠcrÃ©": 1306,
      "Ġ18": 1307,
      "ident": 1308,
      "ĠÃ©tait": 1309,
      "AN": 1310,
      "Ġdirec": 1311,
      "Ġquestion": 1312,
      "ĠCommun": 1313,
      "Â»": 1314,
      "Ġorganis": 1315,
      "entif": 1316,
      "Ġcould": 1317,
      "Ġnow": 1318,
      "Ġprogramme": 1319,
      "endant": 1320,
      "iste": 1321,
      "ĠOh": 1322,
      "Ġenviron": 1323,
      "Ġfollow": 1324,
      "Ġemploy": 1325,
      "ft": 1326,
      "for": 1327,
      "ittee": 1328,
      "ĠStates": 1329,
      "ific": 1330,
      "ween": 1331,
      "ĠCouncil": 1332,
      "Ġfem": 1333,
      "EC": 1334,
      "ĠSi": 1335,
      "atis": 1336,
      "ER": 1337,
      "Ġid": 1338,
      "Ġservice": 1339,
      "erg": 1340,
      "Ġthrough": 1341,
      "Ġgood": 1342,
      "Ã©p": 1343,
      "Ġpeople": 1344,
      "ĠNous": 1345,
      "Ġiss": 1346,
      "Ġwhere": 1347,
      "Ġdoit": 1348,
      "Ġimportant": 1349,
      "Ġsous": 1350,
      "ater": 1351,
      "soci": 1352,
      "teurs": 1353,
      "ĠoÃ¹": 1354,
      "ule": 1355,
      "Ġtwo": 1356,
      "ĠCe": 1357,
      "Ġ%": 1358,
      "Ġret": 1359,
      "iser": 1360,
      "iter": 1361,
      "ĠÃītats": 1362,
      "antÃ©": 1363,
      "Ġren": 1364,
      "ave": 1365,
      "Ã©cur": 1366,
      "Ġdom": 1367,
      "uer": 1368,
      "ting": 1369,
      "ĠÃ©galement": 1370,
      "ars": 1371,
      "Ġfon": 1372,
      "ĠThat": 1373,
      "vre": 1374,
      "ĠUnited": 1375,
      "EN": 1376,
      "ĠâĢľ": 1377,
      "ĠrÃ¨g": 1378,
      "Ġbetween": 1379,
      "ural": 1380,
      "hor": 1381,
      "Ġvi": 1382,
      "Ġhow": 1383,
      "red": 1384,
      "rÃª": 1385,
      "ĠÂ»": 1386,
      "eng": 1387,
      "Ġsyst": 1388,
      "ick": 1389,
      "Ġrequire": 1390,
      "Ġdist": 1391,
      "Ġthink": 1392,
      "Ġwell": 1393,
      "Ġagain": 1394,
      "atif": 1395,
      "ament": 1396,
      "Ã©m": 1397,
      "sibil": 1398,
      "Ġmade": 1399,
      "Ġfond": 1400,
      "Ġthose": 1401,
      "hip": 1402,
      "ros": 1403,
      "Ġrecomm": 1404,
      "aff": 1405,
      "oration": 1406,
      "Ġrepr": 1407,
      "ru": 1408,
      "Ġmembres": 1409,
      "ĠintÃ©": 1410,
      "rent": 1411,
      "ince": 1412,
      "Ġdep": 1413,
      "âĢĿ": 1414,
      "ĠrÃ©p": 1415,
      "autres": 1416,
      "man": 1417,
      "iers": 1418,
      "Ġautres": 1419,
      "ĠGo": 1420,
      "ination": 1421,
      "ole": 1422,
      "Ġdemand": 1423,
      "Ġcontre": 1424,
      "fter": 1425,
      "Ġdroits": 1426,
      "Ġans": 1427,
      "tice": 1428,
      "ulture": 1429,
      "ĠAg": 1430,
      "ix": 1431,
      "Ġshe": 1432,
      "Ġmarch": 1433,
      "Ġfirst": 1434,
      "eu": 1435,
      "isions": 1436,
      "Ġpop": 1437,
      "ĠMem": 1438,
      "Ã©curitÃ©": 1439,
      "ez": 1440,
      "tiques": 1441,
      "Ġcontr": 1442,
      "Ġdit": 1443,
      "Ġadop": 1444,
      "ĠMais": 1445,
      "....": 1446,
      "Ġyears": 1447,
      "Ġtake": 1448,
      "ditions": 1449,
      "ĠspÃ©": 1450,
      "nes": 1451,
      "Ġdevelopment": 1452,
      "Ã©qu": 1453,
      "ĠPl": 1454,
      "nex": 1455,
      "ĠElle": 1456,
      "Ã©tÃ©": 1457,
      "Ġcount": 1458,
      "ĠDans": 1459,
      "orld": 1460,
      "part": 1461,
      "ĠIntern": 1462,
      "Ġ13": 1463,
      "Ġgot": 1464,
      "Ġsans": 1465,
      "Ãªtre": 1466,
      "Ġva": 1467,
      "land": 1468,
      "Ġten": 1469,
      "lect": 1470,
      "Ġexpl": 1471,
      "ĠAd": 1472,
      "ital": 1473,
      "eur": 1474,
      "Ġprotection": 1475,
      "ĠBut": 1476,
      "ĠHow": 1477,
      "Ġdont": 1478,
      "Ġcri": 1479,
      "cri": 1480,
      "Ġinstit": 1481,
      "ties": 1482,
      "ĠCommittee": 1483,
      "10": 1484,
      "Ġ14": 1485,
      "ved": 1486,
      "hing": 1487,
      "Ġtyp": 1488,
      "be": 1489,
      "oul": 1490,
      "Ġavant": 1491,
      "Ġhigh": 1492,
      "ĠIs": 1493,
      "ĠArticle": 1494,
      "Ġlim": 1495,
      "ife": 1496,
      "Ġsoit": 1497,
      "Ġvol": 1498,
      "tement": 1499,
      "iment": 1500,
      "Ġbes": 1501,
      "Ġcoop": 1502,
      "voir": 1503,
      "Ġcours": 1504,
      "Ġobjec": 1505,
      "Ġrais": 1506,
      "Ġcal": 1507,
      "ements": 1508,
      "ange": 1509,
      "Ã´le": 1510,
      "Ġback": 1511,
      "Ġsocial": 1512,
      "earch": 1513,
      "orts": 1514,
      "ĠsÃ©curitÃ©": 1515,
      "Ġfra": 1516,
      "erc": 1517,
      "Ġmake": 1518,
      "ute": 1519,
      "oute": 1520,
      "ett": 1521,
      "ency": 1522,
      "ends": 1523,
      "Ġsais": 1524,
      "az": 1525,
      "Ġiniti": 1526,
      "Ġmark": 1527,
      "Ġtemps": 1528,
      "Ġref": 1529,
      "tical": 1530,
      "Ġmoi": 1531,
      "Ġend": 1532,
      "mber": 1533,
      "Ġmeet": 1534,
      "article": 1535,
      "ateurs": 1536,
      "sider": 1537,
      "Ġfourn": 1538,
      "ove": 1539,
      "Ġ30": 1540,
      "Ġval": 1541,
      "ath": 1542,
      "Ġ2006": 1543,
      "Ġrecher": 1544,
      "ĠtrÃ¨s": 1545,
      "Ġlors": 1546,
      "Ġinform": 1547,
      "Ġgl": 1548,
      "Ġbesoin": 1549,
      "elf": 1550,
      "ationale": 1551,
      "IN": 1552,
      "Ġ16": 1553,
      "urn": 1554,
      "clus": 1555,
      "Ġsol": 1556,
      "Ġconditions": 1557,
      "Ġcountries": 1558,
      "Ġhuman": 1559,
      "arge": 1560,
      "Ġmal": 1561,
      "Ġ2005": 1562,
      "adre": 1563,
      "Ġdemande": 1564,
      "Ġrece": 1565,
      "Ġnouvel": 1566,
      "Ġincre": 1567,
      "Ġtot": 1568,
      "Ġpossible": 1569,
      "ful": 1570,
      "iew": 1571,
      "ession": 1572,
      "ĠMon": 1573,
      "atÃ©g": 1574,
      "ĠsantÃ©": 1575,
      "Ġ17": 1576,
      "www": 1577,
      "ĠÃ©conom": 1578,
      "Ġpolic": 1579,
      "tifs": 1580,
      "Ġdroit": 1581,
      "iod": 1582,
      "tention": 1583,
      "omme": 1584,
      "Ġpay": 1585,
      "estions": 1586,
      "Ġgrand": 1587,
      "ĠNon": 1588,
      "era": 1589,
      "Ġel": 1590,
      "ĠAll": 1591,
      "ĠIf": 1592,
      "ving": 1593,
      "ĠRes": 1594,
      "Ã©cess": 1595,
      "ĠÃĩ": 1596,
      "io": 1597,
      "Ãĥ": 1598,
      "ĠCanadian": 1599,
      "--": 1600,
      "Ġpouv": 1601,
      "Ġgouvernement": 1602,
      "Ġoper": 1603,
      "rois": 1604,
      "ĠnÃ©cess": 1605,
      "Ġpartie": 1606,
      "Ġsem": 1607,
      "Ġcommer": 1608,
      "Ġmati": 1609,
      "ude": 1610,
      "ĠThere": 1611,
      "ps": 1612,
      "Ġcanad": 1613,
      "Ġ2004": 1614,
      "UR": 1615,
      "Ġpersonnes": 1616,
      "valuation": 1617,
      "Ã´t": 1618,
      "Ġvery": 1619,
      "Ġchild": 1620,
      "Ġcel": 1621,
      "Ġeffec": 1622,
      "Ġtoute": 1623,
      "Ġfonction": 1624,
      "tives": 1625,
      "Ġsituation": 1626,
      "ĠDire": 1627,
      "Ġ198": 1628,
      "Ġnotre": 1629,
      "Ġtak": 1630,
      "Ġocc": 1631,
      "ains": 1632,
      "Ġgra": 1633,
      "Ġens": 1634,
      "Ġregard": 1635,
      "Ã©v": 1636,
      "row": 1637,
      "Ġbel": 1638,
      "12": 1639,
      "entr": 1640,
      "Ġcoun": 1641,
      "ank": 1642,
      "Ġess": 1643,
      "termin": 1644,
      "ĠreprÃ©sent": 1645,
      "Ġcomple": 1646,
      "Ġevery": 1647,
      "ition": 1648,
      "ious": 1649,
      "Ġenf": 1650,
      "Ġconsider": 1651,
      "duction": 1652,
      "work": 1653,
      "Ġmeas": 1654,
      "Ġmil": 1655,
      "clar": 1656,
      "Ġprogrammes": 1657,
      "ducation": 1658,
      "Ġway": 1659,
      "Ġport": 1660,
      "IS": 1661,
      "Ġcha": 1662,
      "Ġnive": 1663,
      "action": 1664,
      "'ve": 1665,
      "ches": 1666,
      "Ġmoins": 1667,
      "ablish": 1668,
      "Ġlevel": 1669,
      "ton": 1670,
      "ateg": 1671,
      "Ġmesures": 1672,
      "Ġdern": 1673,
      "ĠgÃ©nÃ©ral": 1674,
      "Ġnouve": 1675,
      "ily": 1676,
      "Ġquestions": 1677,
      "ĠDes": 1678,
      "ĠrÃ©gion": 1679,
      "Ġjour": 1680,
      "omen": 1681,
      "mp": 1682,
      "Ġmoy": 1683,
      "Ġadd": 1684,
      "Ġ2007": 1685,
      "antes": 1686,
      "ĠMan": 1687,
      "Ġgestion": 1688,
      "Ġexper": 1689,
      "Ġadmin": 1690,
      "Ġkm": 1691,
      "Ġimplement": 1692,
      "ety": 1693,
      "ĠSe": 1694,
      "Ġple": 1695,
      "amment": 1696,
      "ĠprÃ©c": 1697,
      "ositions": 1698,
      "sions": 1699,
      "ĠThey": 1700,
      "Ġrespect": 1701,
      "ĠdonnÃ©es": 1702,
      "Ġutilis": 1703,
      "Ġke": 1704,
      "ta": 1705,
      "other": 1706,
      "Ġafin": 1707,
      "Ã©ra": 1708,
      "ĠOr": 1709,
      "Ġmise": 1710,
      "ĠdiffÃ©r": 1711,
      "conomic": 1712,
      "ata": 1713,
      "Ãªte": 1714,
      "Ġtechnolog": 1715,
      "ĠProgram": 1716,
      "ool": 1717,
      "elon": 1718,
      "Ã¨mes": 1719,
      "Ġju": 1720,
      "go": 1721,
      "ĠprÃ©v": 1722,
      "onna": 1723,
      "Ġused": 1724,
      "quer": 1725,
      "Ġviol": 1726,
      "Ġdown": 1727,
      "Ġpriv": 1728,
      "rim": 1729,
      "urity": 1730,
      "ĠUne": 1731,
      "Ġexam": 1732,
      "ellement": 1733,
      "ivid": 1734,
      "aiss": 1735,
      "isl": 1736,
      "Ġnumber": 1737,
      "Ġsecond": 1738,
      "ĠlÃł": 1739,
      "arly": 1740,
      "ateur": 1741,
      "Ġconsid": 1742,
      "till": 1743,
      "Ġvari": 1744,
      "ĠÂ°": 1745,
      "ĠTr": 1746,
      "Ã©ment": 1747,
      "Ġeng": 1748,
      "agn": 1749,
      "iness": 1750,
      "Ġpeuvent": 1751,
      "Ġauthor": 1752,
      "Ġdocument": 1753,
      "day": 1754,
      "Ġconstit": 1755,
      "entes": 1756,
      "ites": 1757,
      "ĠÃĢ": 1758,
      "uch": 1759,
      "Ġlook": 1760,
      "Ġavait": 1761,
      "ttp": 1762,
      "//": 1763,
      "Ġcadre": 1764,
      "ules": 1765,
      "Ġfois": 1766,
      "Ġprior": 1767,
      "Ġcompte": 1768,
      "Ġtit": 1769,
      "Ġtoutes": 1770,
      "Ġress": 1771,
      "ased": 1772,
      "ization": 1773,
      "Ġ,": 1774,
      "Ġbeing": 1775,
      "Ġbr": 1776,
      "ĠServ": 1777,
      "fÃ©r": 1778,
      "Ġdoes": 1779,
      "Ġ'": 1780,
      "Ġhealth": 1781,
      "Ġmost": 1782,
      "ĠsÃ©": 1783,
      "Ġlaw": 1784,
      "Ġmodif": 1785,
      "11": 1786,
      "ivent": 1787,
      "Ġestablish": 1788,
      "uses": 1789,
      "Ġafter": 1790,
      "________": 1791,
      "Ġrespon": 1792,
      "Ġproduits": 1793,
      "Ġavoir": 1794,
      "Ġincluding": 1795,
      "Ġstud": 1796,
      "ropri": 1797,
      "aw": 1798,
      "ĠConvention": 1799,
      "Ġsaid": 1800,
      "ĠactivitÃ©s": 1801,
      "bles": 1802,
      "Ġbud": 1803,
      "Ġautre": 1804,
      "Ġencore": 1805,
      "Ġprobl": 1806,
      "Ġ25": 1807,
      "Ġsay": 1808,
      "Ġeu": 1809,
      "ĠsystÃ¨me": 1810,
      "201": 1811,
      "ler": 1812,
      "eration": 1813,
      "blig": 1814,
      "ĠdÃ©l": 1815,
      "://": 1816,
      "Ġcur": 1817,
      "Ġtrain": 1818,
      "Ġminist": 1819,
      "Ġconsult": 1820,
      "Ġsera": 1821,
      "Ġaw": 1822,
      "Ġentrepr": 1823,
      "rol": 1824,
      "ĠÃ©c": 1825,
      "aines": 1826,
      "ieux": 1827,
      "iÃ¨me": 1828,
      "Ġhelp": 1829,
      "resent": 1830,
      "ĠaprÃ¨s": 1831,
      "Ġproduction": 1832,
      "phe": 1833,
      "Ġgen": 1834,
      "Ġ2002": 1835,
      "ĠmÃ©": 1836,
      "Ġrespons": 1837,
      "Ġpolitique": 1838,
      "ĠdÃ©b": 1839,
      "Ġlang": 1840,
      "ĠmatiÃ¨re": 1841,
      "Ġils": 1842,
      "Ġwithin": 1843,
      "Ġcapac": 1844,
      "Ġorder": 1845,
      "Ġtrois": 1846,
      "OR": 1847,
      "ĠGroup": 1848,
      "vous": 1849,
      "Ġdiffer": 1850,
      "Ġmainten": 1851,
      "urer": 1852,
      "Ġbefore": 1853,
      "serv": 1854,
      "ublic": 1855,
      "Ġlet": 1856,
      "sident": 1857,
      "Â©": 1858,
      "ĠlÃ©g": 1859,
      "Ġrecherche": 1860,
      "ĠAct": 1861,
      "lection": 1862,
      "ĠrÃ©al": 1863,
      "Ġimm": 1864,
      "Ġbase": 1865,
      "ict": 1866,
      "Ġ2003": 1867,
      "tle": 1868,
      "TION": 1869,
      "OM": 1870,
      "Ġdra": 1871,
      "ĠMember": 1872,
      "ters": 1873,
      "ĠSh": 1874,
      "tru": 1875,
      "ull": 1876,
      "oh": 1877,
      "Ġthen": 1878,
      "Ġcommunaut": 1879,
      "quoi": 1880,
      ".\"": 1881,
      "Ġmom": 1882,
      "Ġinst": 1883,
      "ĠdÃ©f": 1884,
      "isme": 1885,
      "Ġfut": 1886,
      "ning": 1887,
      "Ġveux": 1888,
      "ower": 1889,
      "Ġhttp": 1890,
      "Ġcomb": 1891,
      "mbre": 1892,
      "ĠNew": 1893,
      "ĠComitÃ©": 1894,
      "ption": 1895,
      "Ġtotal": 1896,
      "iel": 1897,
      "Ġsal": 1898,
      "ouse": 1899,
      "vis": 1900,
      "Ġrights": 1901,
      "usiness": 1902,
      "Ġcoll": 1903,
      "ather": 1904,
      "ized": 1905,
      "ĠWell": 1906,
      "Ġequ": 1907,
      "Ġdate": 1908,
      "ĠShe": 1909,
      "AL": 1910,
      "gl": 1911,
      "Ġici": 1912,
      "tien": 1913,
      "Ã©li": 1914,
      "tin": 1915,
      "Ġnorm": 1916,
      "Ġlit": 1917,
      "Ġmaj": 1918,
      "Ġbecause": 1919,
      "Ġtransport": 1920,
      "Ġliv": 1921,
      "Ġmonde": 1922,
      "information": 1923,
      "Ġfact": 1924,
      "istance": 1925,
      "Ġ2000": 1926,
      "itation": 1927,
      "Ġfollowing": 1928,
      "ĠrÃ©sult": 1929,
      "ommes": 1930,
      "Ġoffici": 1931,
      "ĠFr": 1932,
      "Ġcanadien": 1933,
      "Ġactu": 1934,
      "Ġbu": 1935,
      "ock": 1936,
      "Ġsession": 1937,
      "Ġfinanci": 1938,
      "Ġeach": 1939,
      "Ġeven": 1940,
      "Ġgreat": 1941,
      "ever": 1942,
      "Ġvra": 1943,
      "irc": 1944,
      "ĠdÃ©m": 1945,
      "ili": 1946,
      "Ġgoing": 1947,
      "Ġfund": 1948,
      "ĠeuropÃ©enne": 1949,
      "Ġfer": 1950,
      "cept": 1951,
      "Ġconcernant": 1952,
      "Ġnature": 1953,
      "ĠApp": 1954,
      "Ġsm": 1955,
      "istration": 1956,
      "Ġstand": 1957,
      "Ġsame": 1958,
      "Ã©tait": 1959,
      "Ġparties": 1960,
      "Ġpra": 1961,
      "Ġperson": 1962,
      "ĠpÃ©ri": 1963,
      "ĠâĢĵ": 1964,
      "irm": 1965,
      "Ġz": 1966,
      "Ġfr": 1967,
      "Ġfais": 1968,
      "ĠSource": 1969,
      "eah": 1970,
      "ĠOff": 1971,
      "intÃ©": 1972,
      "Ġset": 1973,
      "Ġconform": 1974,
      "anti": 1975,
      "ody": 1976,
      "Ġcre": 1977,
      "iÃ©": 1978,
      "uss": 1979,
      "ogra": 1980,
      "Ã©rie": 1981,
      "Ġmany": 1982,
      "Ġagainst": 1983,
      "199": 1984,
      "IC": 1985,
      "Ġfemmes": 1986,
      "auc": 1987,
      "Ġopp": 1988,
      "Ã§on": 1989,
      "Ġanal": 1990,
      "Ġhand": 1991,
      "Ġ2008": 1992,
      "Ġsite": 1993,
      "Ġcontra": 1994,
      "ĠCour": 1995,
      "Ġperiod": 1996,
      "orth": 1997,
      "Ġfind": 1998,
      "ĠState": 1999,
      "20": 2000,
      "??": 2001,
      "Ġappropri": 2002,
      "Åĵ": 2003,
      "Ġaur": 2004,
      "Ġagre": 2005,
      "Ġ21": 2006,
      "ÂŃ": 2007,
      "Ġassoci": 2008,
      "ĠAu": 2009,
      "omet": 2010,
      "Ġniveau": 2011,
      "jour": 2012,
      "Ġsci": 2013,
      "ĠAf": 2014,
      "abilitÃ©": 2015,
      "AC": 2016,
      "Ġdou": 2017,
      "ĠCl": 2018,
      "Ġworld": 2019,
      "tra": 2020,
      "Ġdoivent": 2021,
      "Ġ2001": 2022,
      "illes": 2023,
      "ariat": 2024,
      "Ġaid": 2025,
      "Ġenfants": 2026,
      "Ġboth": 2027,
      ".,": 2028,
      "Ġparagraphe": 2029,
      "ĠÃ©l": 2030,
      "venir": 2031,
      "Ġcome": 2032,
      "ras": 2033,
      "ĠIls": 2034,
      "onc": 2035,
      "ĠAt": 2036,
      "Ġindivid": 2037,
      "Ġcase": 2038,
      "Ġprovide": 2039,
      "issions": 2040,
      "ĠCont": 2041,
      "jours": 2042,
      "Ġprofession": 2043,
      "Ġactivities": 2044,
      "Ġcet": 2045,
      "Ġmed": 2046,
      "truction": 2047,
      "inter": 2048,
      "Ġsch": 2049,
      "gment": 2050,
      "inal": 2051,
      "Ġbro": 2052,
      "Ġ24": 2053,
      "Ġcle": 2054,
      "Ġaddition": 2055,
      "uit": 2056,
      "Ġpris": 2057,
      "Ġarri": 2058,
      "ability": 2059,
      "ended": 2060,
      "Ġautor": 2061,
      "ĠÃĩa": 2062,
      "Ġpresent": 2063,
      "Ġoblig": 2064,
      "mit": 2065,
      "aur": 2066,
      "ĠTra": 2067,
      "ulations": 2068,
      "Ġpur": 2069,
      "orer": 2070,
      "ism": 2071,
      "Ġlife": 2072,
      "ote": 2073,
      "ĠÃ©v": 2074,
      "sive": 2075,
      "Ġmarket": 2076,
      "ential": 2077,
      "lectr": 2078,
      "kay": 2079,
      "Ġciv": 2080,
      "Ġavail": 2081,
      "Ġvue": 2082,
      "ĠII": 2083,
      "Ġcountry": 2084,
      "Ġrend": 2085,
      "eff": 2086,
      "ady": 2087,
      "xim": 2088,
      "ests": 2089,
      "Ġlead": 2090,
      "Ġvers": 2091,
      "Ġfacil": 2092,
      "Ã¡": 2093,
      "occ": 2094,
      "Ġtal": 2095,
      "Ġexemp": 2096,
      "Ġterrit": 2097,
      "ared": 2098,
      "Ġown": 2099,
      "ox": 2100,
      "iÃ¨res": 2101,
      "ium": 2102,
      "urther": 2103,
      "Ġfil": 2104,
      "Ġtax": 2105,
      "Ġtoi": 2106,
      "Ġstruc": 2107,
      "IT": 2108,
      "Ġduring": 2109,
      "Ġpopulation": 2110,
      "ders": 2111,
      "Ġday": 2112,
      "ĠdÃ©clar": 2113,
      "Ġ22": 2114,
      "asse": 2115,
      "Ġsimp": 2116,
      "Ġeffect": 2117,
      "tain": 2118,
      "ible": 2119,
      "Ġ23": 2120,
      "ograph": 2121,
      "uel": 2122,
      "idence": 2123,
      "thing": 2124,
      "Ġjur": 2125,
      "Ġregion": 2126,
      "ĠPre": 2127,
      "Ġpersonne": 2128,
      "Ġdirect": 2129,
      "Ġ31": 2130,
      "Ġnotamment": 2131,
      "uÃ©": 2132,
      "int": 2133,
      "aim": 2134,
      "quÃ©": 2135,
      "Ġthree": 2136,
      "Ġapplication": 2137,
      "Ġgonna": 2138,
      "Ġconv": 2139,
      "ĠprocÃ©d": 2140,
      "ĠInternational": 2141,
      "Ġach": 2142,
      "Ġenvironment": 2143,
      "ake": 2144,
      "ĠCo": 2145,
      "Ġgiv": 2146,
      "ĠPol": 2147,
      "ĠZ": 2148,
      "Ġchaque": 2149,
      "erci": 2150,
      "ĠPres": 2151,
      "partment": 2152,
      "Ġpolicy": 2153,
      "Ġtype": 2154,
      "ĠrÃ¨glement": 2155,
      "xt": 2156,
      "Ġnos": 2157,
      "Ġexist": 2158,
      "ĠTo": 2159,
      "In": 2160,
      "ying": 2161,
      "Ġpo": 2162,
      "Ġsex": 2163,
      "Ġrefer": 2164,
      "reg": 2165,
      "Ġwomen": 2166,
      "Ġresearch": 2167,
      "Ġmoment": 2168,
      "Ġbon": 2169,
      "Ġdata": 2170,
      "ĠmÃ©d": 2171,
      "lication": 2172,
      "bour": 2173,
      "Ġâ": 2174,
      "Ġidentif": 2175,
      "Ġtoujours": 2176,
      "ureau": 2177,
      "Ġdonc": 2178,
      "ĠdÃ©cision": 2179,
      "ĠÃ©tabl": 2180,
      "ĠCette": 2181,
      "AT": 2182,
      "ception": 2183,
      "att": 2184,
      "ĠdÃ©j": 2185,
      "cto": 2186,
      "Ġpu": 2187,
      "Ġlieu": 2188,
      "Ġfaut": 2189,
      "13": 2190,
      "ger": 2191,
      "Ġev": 2192,
      "Ġvoir": 2193,
      "Ġrepresent": 2194,
      "Ġavez": 2195,
      "yl": 2196,
      "Ġefforts": 2197,
      "ieve": 2198,
      "ĠtÃ©l": 2199,
      "Ġton": 2200,
      "Ġlocal": 2201,
      "Ġsor": 2202,
      "issement": 2203,
      "Ġjam": 2204,
      "oard": 2205,
      "Ġprovided": 2206,
      "ĠOui": 2207,
      "Ġchose": 2208,
      "abit": 2209,
      "anger": 2210,
      "agne": 2211,
      "Ã¯": 2212,
      "Ġgovernment": 2213,
      "Ġquoi": 2214,
      "rÃ©t": 2215,
      "Ġcare": 2216,
      "enses": 2217,
      "Ġdepuis": 2218,
      "Ġpeux": 2219,
      "utes": 2220,
      "ĠCons": 2221,
      "Ġformation": 2222,
      "oud": 2223,
      "Ġressources": 2224,
      "Ġprocessus": 2225,
      "ression": 2226,
      "ĠPr": 2227,
      "Ġmajor": 2228,
      "ĠCol": 2229,
      "Ġsuff": 2230,
      "af": 2231,
      "erve": 2232,
      "Ġfound": 2233,
      "Ġmul": 2234,
      "Ġrien": 2235,
      "ina": 2236,
      "Ġmuch": 2237,
      "Ġgar": 2238,
      "Ġpolitiques": 2239,
      "enn": 2240,
      "ĠIns": 2241,
      "ĠFin": 2242,
      "Ġmeasures": 2243,
      "Ġcall": 2244,
      "Ġtrait": 2245,
      "Ġlist": 2246,
      "Ã©ch": 2247,
      "ĠPrÃ©": 2248,
      "Ġtell": 2249,
      "Ġimpro": 2250,
      "30": 2251,
      "ĠUN": 2252,
      "Ġbusiness": 2253,
      "Ġmanagement": 2254,
      "Ġ>": 2255,
      "rais": 2256,
      "Ã©f": 2257,
      "inc": 2258,
      "ĠMay": 2259,
      "Ġcli": 2260,
      "Ġrad": 2261,
      "oses": 2262,
      "ager": 2263,
      "ĠâĢĶ": 2264,
      "aÃ®": 2265,
      "quent": 2266,
      "50": 2267,
      "ĠAb": 2268,
      "ĠGeneral": 2269,
      "Ġapplic": 2270,
      "Ġpot": 2271,
      "moi": 2272,
      "Ġavailable": 2273,
      "igr": 2274,
      "ĠPe": 2275,
      "Ġlast": 2276,
      "ax": 2277,
      "ides": 2278,
      "enef": 2279,
      "iller": 2280,
      "ĠTe": 2281,
      "Ġmean": 2282,
      "Ġreal": 2283,
      "ĠRep": 2284,
      "Ġaccess": 2285,
      "Ġchildren": 2286,
      "Ġproble": 2287,
      "Ġdoll": 2288,
      "ĠdÃ©fin": 2289,
      "omething": 2290,
      "exp": 2291,
      "ieurs": 2292,
      "Ġparagraph": 2293,
      "Ġeconomic": 2294,
      "ĠfaÃ§on": 2295,
      "Ġprendre": 2296,
      "urg": 2297,
      "Ġbre": 2298,
      "ĠGovernment": 2299,
      "Ġsus": 2300,
      "ĠstratÃ©g": 2301,
      "ĠUnies": 2302,
      "omb": 2303,
      "ĠSp": 2304,
      "raient": 2305,
      "Ġindic": 2306,
      "Ġcoord": 2307,
      "Ġven": 2308,
      "Ġavons": 2309,
      "ĠYeah": 2310,
      "Ġvais": 2311,
      "ĠAcc": 2312,
      "ĠmarchÃ©": 2313,
      "ector": 2314,
      "Ġcollec": 2315,
      "Ġprac": 2316,
      "Ġculture": 2317,
      "Ġtoo": 2318,
      "empl": 2319,
      "ĠUnion": 2320,
      "Ġfinancial": 2321,
      "Ġquand": 2322,
      "ĠÃ©qu": 2323,
      "Ġhapp": 2324,
      "ĠspÃ©cial": 2325,
      "Ġstill": 2326,
      "ĠdÃ©s": 2327,
      "organ": 2328,
      "ror": 2329,
      "AS": 2330,
      "ird": 2331,
      "mm": 2332,
      "Ġcompr": 2333,
      "gn": 2334,
      "ĠDE": 2335,
      "ĠdÃ©jÃł": 2336,
      "Ġjou": 2337,
      "Ġtex": 2338,
      "Ġinstitutions": 2339,
      "Ġvale": 2340,
      "Ġpoin": 2341,
      "Ġmis": 2342,
      "Ġjusqu": 2343,
      "ĠInd": 2344,
      "ignements": 2345,
      "ortun": 2346,
      "Ġdocuments": 2347,
      "Ġhist": 2348,
      "Ġselon": 2349,
      "Ġmembers": 2350,
      "Ġauc": 2351,
      "ĠQue": 2352,
      "Ġadv": 2353,
      "imin": 2354,
      "Ġleg": 2355,
      "Ġpendant": 2356,
      "ize": 2357,
      "ĠÃ©conomique": 2358,
      "ection": 2359,
      "Ġensure": 2360,
      "oles": 2361,
      "Ġaction": 2362,
      "Ġstate": 2363,
      "sembl": 2364,
      "Ġchez": 2365,
      "Ġi": 2366,
      "Ġrense": 2367,
      "outh": 2368,
      "Ġput": 2369,
      "Ġbi": 2370,
      "eric": 2371,
      "hic": 2372,
      "ĠMinister": 2373,
      "ĠGu": 2374,
      "ĠComp": 2375,
      "Ġrelations": 2376,
      ");": 2377,
      "Ġjamais": 2378,
      "Ġcomment": 2379,
      "ness": 2380,
      "ield": 2381,
      "Ġperform": 2382,
      "Ġbudget": 2383,
      "Ġdesign": 2384,
      "eau": 2385,
      "15": 2386,
      "sif": 2387,
      "Ġshow": 2388,
      "As": 2389,
      "Ġsavoir": 2390,
      "Ġlic": 2391,
      "liament": 2392,
      "Ġgroupe": 2393,
      "Ġsurve": 2394,
      "Ġpersonnel": 2395,
      "ario": 2396,
      "ension": 2397,
      "ĠgÃ©nÃ©rale": 2398,
      "Ġpuis": 2399,
      "ether": 2400,
      "Ġinves": 2401,
      "Ġwithout": 2402,
      "Ġsubst": 2403,
      "Ġposition": 2404,
      "Ġparticular": 2405,
      "Ġ100": 2406,
      "lu": 2407,
      "ĠCommunity": 2408,
      "ĠrÃ©un": 2409,
      "ĠrÃ©sultats": 2410,
      "ested": 2411,
      "aucoup": 2412,
      "ecess": 2413,
      "ĠeuropÃ©en": 2414,
      "ĠÃ©ch": 2415,
      "ancement": 2416,
      "Ġfix": 2417,
      "aboration": 2418,
      "ĠpÃ©riode": 2419,
      "Ġcurrent": 2420,
      "Ġsecteur": 2421,
      "ĠannÃ©es": 2422,
      "Ġcompris": 2423,
      "Ġalors": 2424,
      "Ġallow": 2425,
      "accord": 2426,
      "lÃ©ment": 2427,
      "ĠDo": 2428,
      "Union": 2429,
      "'d": 2430,
      "Ġeffic": 2431,
      "isc": 2432,
      "Ġpa": 2433,
      "Ġsection": 2434,
      "Ã©b": 2435,
      "Ġglob": 2436,
      "Ġparticipation": 2437,
      "ettre": 2438,
      "ĠPh": 2439,
      "Ġissues": 2440,
      "Ġcompan": 2441,
      "ca": 2442,
      "omp": 2443,
      "Ġinvol": 2444,
      "Ġaddress": 2445,
      "fÃ©rence": 2446,
      "ners": 2447,
      "Ġsomething": 2448,
      "ories": 2449,
      "erre": 2450,
      "homme": 2451,
      "Ġsucc": 2452,
      "14": 2453,
      "Ġceux": 2454,
      "Ġlittle": 2455,
      "Ġ50": 2456,
      "Ġreven": 2457,
      "Ġ--": 2458,
      "Ġcher": 2459,
      "Ġfun": 2460,
      "ĠCes": 2461,
      "Ġcirc": 2462,
      "orter": 2463,
      "Ġview": 2464,
      "ĠDevelop": 2465,
      "Ġdr": 2466,
      "Ġmois": 2467,
      "ults": 2468,
      "Ġreally": 2469,
      "Ġmesure": 2470,
      "gation": 2471,
      "Ġseu": 2472,
      "Ġchange": 2473,
      "Ġproject": 2474,
      "Ġ27": 2475,
      "vironnement": 2476,
      "Ġbenef": 2477,
      "mis": 2478,
      "Ġloi": 2479,
      "Ġcompl": 2480,
      "Ġnever": 2481,
      "ones": 2482,
      "unes": 2483,
      "Ġrelev": 2484,
      "ark": 2485,
      "Ġmillion": 2486,
      "Ġdifferent": 2487,
      "ope": 2488,
      "Ġsup": 2489,
      "Ġreview": 2490,
      "sp": 2491,
      "ĠpremiÃ¨re": 2492,
      "Ġdidn": 2493,
      "Ġu": 2494,
      "Ġinternationale": 2495,
      "ĠNational": 2496,
      "dit": 2497,
      "Ġmettre": 2498,
      "ĠÃ©tud": 2499,
      "ĠRec": 2500,
      "ason": 2501,
      "ĠdÃ©termin": 2502,
      "uck": 2503,
      "Ġcoup": 2504,
      "cent": 2505,
      "ample": 2506,
      "Ġresult": 2507,
      "derst": 2508,
      "Ġgive": 2509,
      "Ġnouveau": 2510,
      "uring": 2511,
      "Ġarea": 2512,
      "Ġtable": 2513,
      "Ġmonth": 2514,
      "Ġstat": 2515,
      "Ġfig": 2516,
      "Ġassess": 2517,
      "ĠAut": 2518,
      "ĠCar": 2519,
      "cription": 2520,
      "otion": 2521,
      "Ġcontinue": 2522,
      "Ġ/": 2523,
      "lez": 2524,
      "Ġdistrib": 2525,
      "Ġdivers": 2526,
      "Ġjuste": 2527,
      "UE": 2528,
      "Ġspecial": 2529,
      "ately": 2530,
      "Ġ26": 2531,
      "Ġdollars": 2532,
      "Ġtant": 2533,
      "Ġcharg": 2534,
      "ected": 2535,
      "ĠHealth": 2536,
      "Ġpremier": 2537,
      "nent": 2538,
      "Ġcontinu": 2539,
      "gg": 2540,
      "Ġvoul": 2541,
      "Ġ28": 2542,
      "fois": 2543,
      "ĠSu": 2544,
      "Ġ1999": 2545,
      "Ġraison": 2546,
      "cul": 2547,
      "Ġthough": 2548,
      "Ġfav": 2549,
      "erne": 2550,
      "side": 2551,
      "Ġdecision": 2552,
      "uf": 2553,
      "Ġaccount": 2554,
      "16": 2555,
      "Ġareas": 2556,
      "ĠPresident": 2557,
      "Ġplay": 2558,
      "Ġenti": 2559,
      "uman": 2560,
      "Ġobserv": 2561,
      "alitÃ©": 2562,
      "Ġsaf": 2563,
      "Ġpat": 2564,
      "bly": 2565,
      "Ġmus": 2566,
      "ustri": 2567,
      "Ġdevrait": 2568,
      "Ġste": 2569,
      "ĠBr": 2570,
      "oss": 2571,
      "ification": 2572,
      "ĠGr": 2573,
      "Ġwater": 2574,
      "Ġnecess": 2575,
      "ribun": 2576,
      "org": 2577,
      "Ġrenseignements": 2578,
      "Ġbeaucoup": 2579,
      "ĠbÃ©n": 2580,
      "onom": 2581,
      "aide": 2582,
      "ĠspÃ©ci": 2583,
      "Ġfurther": 2584,
      "ĠcoÃ»": 2585,
      "Ġmand": 2586,
      "Ġplusieurs": 2587,
      "Ġpouvoir": 2588,
      "Ġorig": 2589,
      "su": 2590,
      "\".": 2591,
      "Ġbetter": 2592,
      "Ġrecommand": 2593,
      "ane": 2594,
      "Ġrap": 2595,
      "Ġmaintenant": 2596,
      "Ġesp": 2597,
      "atisf": 2598,
      "Ġlog": 2599,
      "ĠProgramme": 2600,
      "Ġworking": 2601,
      "ĠX": 2602,
      "Ġsince": 2603,
      "ĠMe": 2604,
      "Ġcontrol": 2605,
      "Ġprojets": 2606,
      "istra": 2607,
      "Ġprovin": 2608,
      "Ġpolice": 2609,
      "tir": 2610,
      "ĠTout": 2611,
      "Ġtraining": 2612,
      "Ġtitre": 2613,
      "Ġwhile": 2614,
      "Ġcela": 2615,
      "pt": 2616,
      "Ġtri": 2617,
      "Ġca": 2618,
      "ĠrÃ©pond": 2619,
      "hui": 2620,
      "ĠBe": 2621,
      "Ġexc": 2622,
      "ĠsÃ»": 2623,
      "ID": 2624,
      "amen": 2625,
      "Ġ29": 2626,
      "Ġgrande": 2627,
      "ĠMy": 2628,
      "Ġagric": 2629,
      "Ġlarge": 2630,
      "rÃªt": 2631,
      "Ġmeeting": 2632,
      "Ġproducts": 2633,
      "ĠCor": 2634,
      "Ġexig": 2635,
      "Ġprog": 2636,
      "Ġunderst": 2637,
      "ĠqualitÃ©": 2638,
      "Ġ000": 2639,
      "Ġmeille": 2640,
      "ATION": 2641,
      "ĠcontrÃ´le": 2642,
      "Ġ197": 2643,
      "islation": 2644,
      "Ġimplementation": 2645,
      "Ġrespec": 2646,
      "arn": 2647,
      "Ġsix": 2648,
      "vely": 2649,
      "ĠRegulation": 2650,
      "atory": 2651,
      "Ġsecurity": 2652,
      "AD": 2653,
      "cer": 2654,
      "Ġ...": 2655,
      "Ġcertains": 2656,
      "RE": 2657,
      "tegr": 2658,
      "ĠSecret": 2659,
      "Ġsignific": 2660,
      "ĠFrance": 2661,
      "por": 2662,
      "ĠÃ©taient": 2663,
      "Ġpossibil": 2664,
      "ultural": 2665,
      "autre": 2666,
      "ĠEU": 2667,
      "resp": 2668,
      "Ġspecific": 2669,
      "Ġcamp": 2670,
      "vez": 2671,
      "inÃ©": 2672,
      "25": 2673,
      "sh": 2674,
      "osed": 2675,
      "ience": 2676,
      "18": 2677,
      "pro": 2678,
      "AP": 2679,
      "Ġproced": 2680,
      "Ġdiffic": 2681,
      "nexe": 2682,
      "Ġtaux": 2683,
      "Ġquelque": 2684,
      "rique": 2685,
      "Ġseulement": 2686,
      "Ã¨ne": 2687,
      "Ġmeans": 2688,
      "rieur": 2689,
      "rier": 2690,
      "esp": 2691,
      "Ã©rif": 2692,
      "Ġencour": 2693,
      "ength": 2694,
      "Ġopen": 2695,
      "ĠsociÃ©tÃ©": 2696,
      "Ġprix": 2697,
      "aces": 2698,
      "dic": 2699,
      "Ãĩ": 2700,
      "yant": 2701,
      "Ġstrateg": 2702,
      "Ġmilit": 2703,
      "ss": 2704,
      "Ġrenfor": 2705,
      "Ġjud": 2706,
      "eter": 2707,
      "Ġrequired": 2708,
      "ĠBien": 2709,
      "ĠÃªtes": 2710,
      "ÃŃ": 2711,
      "tario": 2712,
      "cle": 2713,
      "ĠprÃ©sente": 2714,
      "ross": 2715,
      "Ġexemple": 2716,
      "ENT": 2717,
      "Ġcommunity": 2718,
      "ĠDon": 2719,
      "tie": 2720,
      "ĠCentre": 2721,
      "nov": 2722,
      "Ġparten": 2723,
      "ways": 2724,
      "Ġair": 2725,
      "Ġarticle": 2726,
      "Ġcentr": 2727,
      "Ġvu": 2728,
      "oires": 2729,
      "Ġsim": 2730,
      "Ġrelative": 2731,
      "ck": 2732,
      "mination": 2733,
      "ĠLoi": 2734,
      "jects": 2735,
      "Ġindividual": 2736,
      "Ġtaken": 2737,
      "ume": 2738,
      "........": 2739,
      "itical": 2740,
      "Ġentreprises": 2741,
      "Ġcause": 2742,
      "Ġvic": 2743,
      "vement": 2744,
      "Ġsujet": 2745,
      "Ġmillions": 2746,
      "Ġdispositions": 2747,
      "atic": 2748,
      "ĠfÃ©d": 2749,
      "Ġmort": 2750,
      "Ġpati": 2751,
      "tisse": 2752,
      "oph": 2753,
      "Ġcer": 2754,
      "Ġorganiz": 2755,
      "Ġ&": 2756,
      "Ġresources": 2757,
      "Ġconfl": 2758,
      "ĠcompÃ©t": 2759,
      "Ġpermett": 2760,
      "application": 2761,
      "Ġsen": 2762,
      "rain": 2763,
      "ĠDevelopment": 2764,
      "ator": 2765,
      "Ġdef": 2766,
      "Ã©valuation": 2767,
      "ĠHey": 2768,
      "Ãītat": 2769,
      "ĠNot": 2770,
      "ederal": 2771,
      "ward": 2772,
      "Ġindi": 2773,
      "Ġforce": 2774,
      "ogn": 2775,
      "oney": 2776,
      "ek": 2777,
      "ĠParliament": 2778,
      "Ġcommercial": 2779,
      "Ġvos": 2780,
      "Ġestim": 2781,
      "ĠmaniÃ¨re": 2782,
      "Ġsatisf": 2783,
      "Ġcin": 2784,
      "Ġconst": 2785,
      "Ġpoints": 2786,
      "Ġless": 2787,
      "ived": 2788,
      "Ġnouvelle": 2789,
      "ular": 2790,
      "Ġord": 2791,
      "time": 2792,
      "ĠGod": 2793,
      "istes": 2794,
      "Ġoffer": 2795,
      "ustry": 2796,
      "Ġpourrait": 2797,
      "aj": 2798,
      "tics": 2799,
      "itor": 2800,
      "EM": 2801,
      "OP": 2802,
      "Ġface": 2803,
      "jourd": 2804,
      "Ġdet": 2805,
      "tivitÃ©": 2806,
      "Ġobten": 2807,
      "Ġhead": 2808,
      "toc": 2809,
      "ots": 2810,
      "uelle": 2811,
      "Ġname": 2812,
      "Ġrempl": 2813,
      "Ġspe": 2814,
      "II": 2815,
      "ĠComment": 2816,
      "ĠThese": 2817,
      "Ġmieux": 2818,
      "ron": 2819,
      "ĠDirec": 2820,
      "Ã©di": 2821,
      "ĠreÃ§": 2822,
      "Ã©rer": 2823,
      "Ġfour": 2824,
      "Ġdomaine": 2825,
      "Ġappli": 2826,
      "22": 2827,
      "Ġcommunication": 2828,
      "ĠWhere": 2829,
      "orig": 2830,
      "Ġwhy": 2831,
      "ceed": 2832,
      "Ġgrow": 2833,
      "atique": 2834,
      "ĠnÃ©g": 2835,
      "iner": 2836,
      "ĠLet": 2837,
      "Ġopportun": 2838,
      "Ġcommit": 2839,
      "of": 2840,
      "ĠcoopÃ©ration": 2841,
      "ĠDr": 2842,
      "Ġanother": 2843,
      "urance": 2844,
      "Ġpetit": 2845,
      "ĠIN": 2846,
      "ĠPrÃ©sident": 2847,
      "aly": 2848,
      "Ġenv": 2849,
      "Ġjours": 2850,
      "Ġcand": 2851,
      "Ġanti": 2852,
      "Ġpurp": 2853,
      "Ġnet": 2854,
      "Ġanim": 2855,
      "Ġfuture": 2856,
      "ticles": 2857,
      "Ġhome": 2858,
      "over": 2859,
      "Ġvert": 2860,
      "ĠTrans": 2861,
      "ĠDec": 2862,
      "Ġsuite": 2863,
      "ending": 2864,
      "ocra": 2865,
      "off": 2866,
      "Ġtreat": 2867,
      "Ġeffective": 2868,
      "Ġbased": 2869,
      "ST": 2870,
      "Ġchar": 2871,
      "by": 2872,
      "Ġinstru": 2873,
      "Åĵu": 2874,
      "yd": 2875,
      "cembre": 2876,
      "Ġask": 2877,
      "Ġunderstand": 2878,
      "ists": 2879,
      "Ġgeneral": 2880,
      "Ġneeds": 2881,
      "Ġcourse": 2882,
      "odes": 2883,
      "to": 2884,
      "Ġnouvelles": 2885,
      "ference": 2886,
      "Ġnecessary": 2887,
      "ĠDÃ©": 2888,
      "ĠRapp": 2889,
      "cember": 2890,
      "Ġfri": 2891,
      "la": 2892,
      "Ġfre": 2893,
      "Ġpap": 2894,
      "Ġtour": 2895,
      "ĠrÃ´le": 2896,
      "ED": 2897,
      "Ġappel": 2898,
      "airs": 2899,
      "ipe": 2900,
      "17": 2901,
      "way": 2902,
      "Ġland": 2903,
      "Ġseront": 2904,
      "Ġparticulier": 2905,
      "iture": 2906,
      "Ġproper": 2907,
      "Ġbeh": 2908,
      "Ġaim": 2909,
      "ĠWhen": 2910,
      "Ġill": 2911,
      "Ġcop": 2912,
      "nel": 2913,
      "quelle": 2914,
      "ĠTH": 2915,
      "ĠChar": 2916,
      "ĠAfric": 2917,
      "ĠWhy": 2918,
      "Ġappar": 2919,
      "ĠAmeric": 2920,
      "Ġgiven": 2921,
      "Ġmoyen": 2922,
      "sembly": 2923,
      "istre": 2924,
      "Ġcelui": 2925,
      "ĠServices": 2926,
      "ĠWith": 2927,
      "ĠEm": 2928,
      "ik": 2929,
      "ĠPas": 2930,
      "Ġconcerne": 2931,
      "irl": 2932,
      "rir": 2933,
      "ght": 2934,
      "aking": 2935,
      "ised": 2936,
      "semblÃ©e": 2937,
      "the": 2938,
      "Ġmess": 2939,
      "Ġinclude": 2940,
      "sign": 2941,
      "Ġmention": 2942,
      "Ġbasis": 2943,
      "lectron": 2944,
      "Ġpublique": 2945,
      "amb": 2946,
      "ĠconformÃ©ment": 2947,
      "Ġaround": 2948,
      "och": 2949,
      "ished": 2950,
      "Ġlaquelle": 2951,
      "ront": 2952,
      "Ġresolution": 2953,
      "Ġnote": 2954,
      "Ġamong": 2955,
      "ĠmÃ©th": 2956,
      "Ġbest": 2957,
      "Ġrecord": 2958,
      "uly": 2959,
      "Ġsector": 2960,
      "Ġtrop": 2961,
      "ĠrÃ©solution": 2962,
      "ienne": 2963,
      "iff": 2964,
      "erman": 2965,
      "Ġmor": 2966,
      "Ġminim": 2967,
      "utilisation": 2968,
      "Ġpens": 2969,
      "Ġ40": 2970,
      "ribunal": 2971,
      "Ġtest": 2972,
      "UN": 2973,
      "Ġcandid": 2974,
      "environnement": 2975,
      "euvre": 2976,
      "Ġpartir": 2977,
      "Ġsmall": 2978,
      "isÃ©": 2979,
      "usion": 2980,
      "ĠDis": 2981,
      "Ġsk": 2982,
      "alement": 2983,
      "atch": 2984,
      "Ġserait": 2985,
      "Ġapproach": 2986,
      "ready": 2987,
      "Ġtrouver": 2988,
      "Ġorganisations": 2989,
      "Ġvoy": 2990,
      "ĠPourquoi": 2991,
      "Ġbuild": 2992,
      "Ġconte": 2993,
      "Ġold": 2994,
      "Ġanalys": 2995,
      "Ġschool": 2996,
      "Ġadministra": 2997,
      "Ġcover": 2998,
      "Ġcrit": 2999,
      "ĠJune": 3000,
      "Ġfamily": 3001,
      "Ġrelevant": 3002,
      "respond": 3003,
      "Ġtim": 3004,
      "ationaux": 3005,
      "ĠprÃ©s": 3006,
      "Ġbar": 3007,
      "ministration": 3008,
      "Ġ;": 3009,
      "Ġsens": 3010,
      "ergy": 3011,
      "Ġdefin": 3012,
      "ained": 3013,
      "ze": 3014,
      "tition": 3015,
      "Ġjourn": 3016,
      "Ġdoing": 3017,
      "lease": 3018,
      "Ġcapital": 3019,
      "Ġeducation": 3020,
      "ĠbÃ©nÃ©f": 3021,
      "ĠvÃ©rif": 3022,
      "ĠInc": 3023,
      "ĠEl": 3024,
      "titution": 3025,
      "ĠâĻ": 3026,
      "Ġabs": 3027,
      "Ġviolence": 3028,
      "Ã¨te": 3029,
      "Ġ1998": 3030,
      "ĠSecrÃ©t": 3031,
      "Ġunique": 3032,
      "Ġarr": 3033,
      "avant": 3034,
      "sez": 3035,
      "Ġsubs": 3036,
      "wh": 3037,
      "aint": 3038,
      "yn": 3039,
      "ases": 3040,
      "Ġcr": 3041,
      "EL": 3042,
      "Ġresults": 3043,
      "gu": 3044,
      "ĠDecember": 3045,
      "Ġvraiment": 3046,
      "Ġexerc": 3047,
      "Ġjeunes": 3048,
      "iver": 3049,
      "occup": 3050,
      "ask": 3051,
      "ĠconsÃ©qu": 3052,
      "rastruc": 3053,
      "import": 3054,
      "Ġtrava": 3055,
      "Ġphot": 3056,
      "iale": 3057,
      "Ġterror": 3058,
      "Ġsau": 3059,
      "Ġcompar": 3060,
      "Ġtrouv": 3061,
      "ĠHowever": 3062,
      "vious": 3063,
      "Ġpage": 3064,
      "ĠYes": 3065,
      "urb": 3066,
      "Ã©ro": 3067,
      "Ġ*": 3068,
      "Ġappropriate": 3069,
      "ĠJan": 3070,
      "alf": 3071,
      "ĠJus": 3072,
      "illet": 3073,
      "leurs": 3074,
      "prise": 3075,
      "ĠMarch": 3076,
      "oot": 3077,
      "ality": 3078,
      "Ġfull": 3079,
      "term": 3080,
      "Ġintro": 3081,
      "Ġayant": 3082,
      "ĠâĻª": 3083,
      "Ġdiv": 3084,
      "ulaire": 3085,
      "Ġalready": 3086,
      "05": 3087,
      "Ġci": 3088,
      "Ġplans": 3089,
      "view": 3090,
      "enci": 3091,
      "ĠParlement": 3092,
      "Ġpense": 3093,
      "eux": 3094,
      "orn": 3095,
      "mework": 3096,
      "Ġaugment": 3097,
      "CT": 3098,
      "ĠprÃ©par": 3099,
      "inf": 3100,
      "ĠdonnÃ©": 3101,
      "Ġoccup": 3102,
      "ĠWork": 3103,
      "Ġrequirements": 3104,
      "Ġlove": 3105,
      "ĠPR": 3106,
      "IL": 3107,
      "Ġconclus": 3108,
      "expl": 3109,
      "IP": 3110,
      "ĠproblÃ¨mes": 3111,
      "issance": 3112,
      "Ġcorrespond": 3113,
      "ires": 3114,
      "Ġgroupes": 3115,
      "Ġaccordance": 3116,
      "Ġsl": 3117,
      "ĠamÃ©li": 3118,
      "lex": 3119,
      "ĠAc": 3120,
      "ider": 3121,
      "Ġthing": 3122,
      "Ġrisk": 3123,
      "Ġlegal": 3124,
      "Ġjustice": 3125,
      "uant": 3126,
      "Ġjurid": 3127,
      "\",": 3128,
      "Ġkeep": 3129,
      "ĠHuman": 3130,
      "Ġpolitical": 3131,
      "ĠPri": 3132,
      "ĠproblÃ¨me": 3133,
      "ĠSal": 3134,
      "Ġdiscus": 3135,
      "Ġinterest": 3136,
      "Unis": 3137,
      "erial": 3138,
      "ĠService": 3139,
      "oms": 3140,
      "SC": 3141,
      "Ġquelques": 3142,
      "Ġnationale": 3143,
      "Ġinformations": 3144,
      "ĠBoard": 3145,
      "nements": 3146,
      "issant": 3147,
      "Ġni": 3148,
      "Ġact": 3149,
      "Ġdays": 3150,
      "semble": 3151,
      "atre": 3152,
      "40": 3153,
      "ĠconsidÃ©r": 3154,
      "Â°": 3155,
      "iles": 3156,
      "oix": 3157,
      "eth": 3158,
      "Ġrelated": 3159,
      "Ġtoget": 3160,
      "ogue": 3161,
      "ĠCome": 3162,
      "Ġeffet": 3163,
      "Ġtogether": 3164,
      "nelle": 3165,
      "ĠrÃ©du": 3166,
      "Ġexample": 3167,
      "Ġfore": 3168,
      "ators": 3169,
      "Ġcost": 3170,
      "sieur": 3171,
      "Ġvertu": 3172,
      "Ġintegr": 3173,
      "Ġincrease": 3174,
      "Ġvaleur": 3175,
      "ĠJoh": 3176,
      "Ġsoient": 3177,
      "Ġwhether": 3178,
      "Åĵuvre": 3179,
      "ĠOkay": 3180,
      "Ġassistance": 3181,
      "Ġparce": 3182,
      "ĠComme": 3183,
      "Ġnext": 3184,
      "ĠNow": 3185,
      "ĠAlors": 3186,
      "Ġmight": 3187,
      "ĠOffice": 3188,
      "ĠnÃ©cessaire": 3189,
      "atifs": 3190,
      "Ġconnaiss": 3191,
      "Ġfeel": 3192,
      "Ġpartners": 3193,
      "Ġ_": 3194,
      "ried": 3195,
      "Ġamend": 3196,
      "ĠRÃ©p": 3197,
      "Ġsever": 3198,
      "ĠAre": 3199,
      "Ġorganizations": 3200,
      "Ġobjectifs": 3201,
      "ĠRepublic": 3202,
      "Ġprob": 3203,
      "ĠAssembly": 3204,
      "Ġconduc": 3205,
      "Ġemploye": 3206,
      "Ġ2009": 3207,
      "Ġinvest": 3208,
      "aise": 3209,
      "ape": 3210,
      "icient": 3211,
      "Ġsubject": 3212,
      "mission": 3213,
      "Ġstructure": 3214,
      "ĠMal": 3215,
      "Ġrelatives": 3216,
      "Ġcelle": 3217,
      "osts": 3218,
      "ĠSur": 3219,
      "nels": 3220,
      "Ġcooperation": 3221,
      "ĠOrgan": 3222,
      "line": 3223,
      "gin": 3224,
      "ublique": 3225,
      "Ġarm": 3226,
      "Ġrole": 3227,
      "ĠFe": 3228,
      "Or": 3229,
      "Ġmer": 3230,
      "let": 3231,
      "Ġcommon": 3232,
      "The": 3233,
      "Ġcondition": 3234,
      "ges": 3235,
      "Ġalways": 3236,
      "Ġatte": 3237,
      "ĠAff": 3238,
      "ouvez": 3239,
      "Ġseul": 3240,
      "Ġbal": 3241,
      "Ġtradition": 3242,
      "Ġclim": 3243,
      "iÃ©s": 3244,
      "60": 3245,
      "aix": 3246,
      "Ġsitu": 3247,
      "edi": 3248,
      "Ġhabit": 3249,
      "lements": 3250,
      "23": 3251,
      "asion": 3252,
      "not": 3253,
      "ĠStr": 3254,
      "ĠReport": 3255,
      "Ġproduit": 3256,
      "Ġdispon": 3257,
      "Ġissue": 3258,
      "Ġcertif": 3259,
      "Ġsommes": 3260,
      "Ġfield": 3261,
      "cement": 3262,
      "Ġdeb": 3263,
      "ĠDieu": 3264,
      "ĠBureau": 3265,
      "ĠannÃ©e": 3266,
      "ĠDepartment": 3267,
      "ĠrÃ©v": 3268,
      "Ġactions": 3269,
      "ustrie": 3270,
      "Ġtraitement": 3271,
      "Ġconten": 3272,
      "endent": 3273,
      "ology": 3274,
      "Ġjob": 3275,
      "Ġcases": 3276,
      "Ġclaim": 3277,
      "Ġpower": 3278,
      "Ġfamille": 3279,
      "ames": 3280,
      "Ġgard": 3281,
      "Ġtrade": 3282,
      "Ġext": 3283,
      "quel": 3284,
      "Ġgens": 3285,
      "OL": 3286,
      "pects": 3287,
      "Ġsure": 3288,
      "Ġrecogn": 3289,
      "ĠfÃ©dÃ©r": 3290,
      "Ġword": 3291,
      "Ġsouv": 3292,
      "emploi": 3293,
      "Ġhappen": 3294,
      "ids": 3295,
      "Ġreconn": 3296,
      "Ġfran": 3297,
      "Ġcontract": 3298,
      "Ġcontact": 3299,
      "ĠdÃ©t": 3300,
      "Ġexport": 3301,
      "Ġessenti": 3302,
      "Ġfavor": 3303,
      "mi": 3304,
      "ĠrÃ©c": 3305,
      "Ġstatis": 3306,
      "Ġprovisions": 3307,
      "Ġregional": 3308,
      "Ġmaxim": 3309,
      "uff": 3310,
      "Ġlangu": 3311,
      "rid": 3312,
      "Ġmeth": 3313,
      "Ġinitiatives": 3314,
      "Ġdeli": 3315,
      "Ġdeal": 3316,
      "2004": 3317,
      "Ġfoc": 3318,
      "less": 3319,
      "oit": 3320,
      "Ġenter": 3321,
      "ueur": 3322,
      "Ġfinal": 3323,
      "Ġcou": 3324,
      "Ġsoul": 3325,
      "Ġkind": 3326,
      "abor": 3327,
      "Ġdone": 3328,
      "Ġmaterial": 3329,
      "ĠÃ©lev": 3330,
      "Ġgroups": 3331,
      "arch": 3332,
      "Ġfile": 3333,
      "Ġnouveaux": 3334,
      "Ġquality": 3335,
      "bs": 3336,
      "Ġsugg": 3337,
      "Ġprim": 3338,
      "lo": 3339,
      "ĠGroupe": 3340,
      "Ġtravaux": 3341,
      "Ġminutes": 3342,
      "Ġfood": 3343,
      "Ġprojects": 3344,
      "iversity": 3345,
      "urr": 3346,
      "Ġdestin": 3347,
      "Ġfinancement": 3348,
      "eck": 3349,
      "Ġbesoins": 3350,
      "Ġdirective": 3351,
      "Ġconsomm": 3352,
      "Ġglobal": 3353,
      "ither": 3354,
      "Ġfemme": 3355,
      "ctions": 3356,
      "crib": 3357,
      "Europe": 3358,
      "ĠAlle": 3359,
      "Ġstaff": 3360,
      "men": 3361,
      "ĠRussi": 3362,
      "Ġ2010": 3363,
      "ledge": 3364,
      "ĠrÃ©se": 3365,
      "ustain": 3366,
      "Ġorganismes": 3367,
      "issent": 3368,
      "Ġperman": 3369,
      "Ġjuin": 3370,
      "Ġcentre": 3371,
      "Ġpromotion": 3372,
      "ĠSch": 3373,
      "ĠMerci": 3374,
      "Ġide": 3375,
      "Ġthings": 3376,
      "Ġtoday": 3377,
      "Ġparticipants": 3378,
      "Ġhouse": 3379,
      "autÃ©": 3380,
      "ĠSep": 3381,
      "examen": 3382,
      "ced": 3383,
      "iez": 3384,
      "oman": 3385,
      "sociation": 3386,
      "Ġvisant": 3387,
      "Ġelles": 3388,
      "Ġheld": 3389,
      "ĠSpec": 3390,
      "ĠEnviron": 3391,
      "ĠAss": 3392,
      "ĠOu": 3393,
      "ĠFirst": 3394,
      "24": 3395,
      "Ġpaix": 3396,
      "mble": 3397,
      "Ġrecommend": 3398,
      "Ġpi": 3399,
      "Ġban": 3400,
      "Ġindustri": 3401,
      "Ġconcentr": 3402,
      "Ġestablished": 3403,
      "Ġtalk": 3404,
      "Ġpeace": 3405,
      "ng": 3406,
      "Ã©rations": 3407,
      "Ġsubmit": 3408,
      "Ġvas": 3409,
      "ĠEC": 3410,
      "ĠÃ©tr": 3411,
      "27": 3412,
      "Ġfonds": 3413,
      "Ġsent": 3414,
      "Ġbelieve": 3415,
      "29": 3416,
      "Ġdiscri": 3417,
      "uter": 3418,
      "co": 3419,
      "ĠNorth": 3420,
      "ĠBon": 3421,
      "Ġaway": 3422,
      "Ġrisque": 3423,
      "Ġparler": 3424,
      "Ġsignificant": 3425,
      "Ġlut": 3426,
      "Ġcrois": 3427,
      "Ġread": 3428,
      "ĠRights": 3429,
      "Ġfew": 3430,
      "rer": 3431,
      "Ġcompe": 3432,
      "resse": 3433,
      "rench": 3434,
      "Ġgovern": 3435,
      "Ġimpact": 3436,
      "Ġmembre": 3437,
      "ĠCourt": 3438,
      "ii": 3439,
      "Ġamount": 3440,
      "ĠPlan": 3441,
      "Ġscientif": 3442,
      "Ġconstruction": 3443,
      "ventions": 3444,
      "ĠPublic": 3445,
      "Ġgirl": 3446,
      "Ġmulti": 3447,
      "Ġlo": 3448,
      "==": 3449,
      "Ã¨le": 3450,
      "vier": 3451,
      "kes": 3452,
      "Ġterme": 3453,
      "Ġdonner": 3454,
      "Ġable": 3455,
      "Ġhear": 3456,
      "Ġparty": 3457,
      "ury": 3458,
      "Ġconsidered": 3459,
      "fs": 3460,
      "ril": 3461,
      "Ġoeuvre": 3462,
      "idÃ©": 3463,
      "Ġstart": 3464,
      "AssemblÃ©e": 3465,
      "Ġfish": 3466,
      "Ġetc": 3467,
      "Ġacqu": 3468,
      "Ġpropri": 3469,
      "Ġleast": 3470,
      "Ġcharge": 3471,
      "illance": 3472,
      "oser": 3473,
      "Ġclass": 3474,
      "Ġligne": 3475,
      "Ġcorre": 3476,
      "Ġfai": 3477,
      "Ġpeti": 3478,
      "ctober": 3479,
      "ĠInternet": 3480,
      "ĠUS": 3481,
      "ĠJust": 3482,
      "ĠJohn": 3483,
      "Ġnuc": 3484,
      "isÃ©s": 3485,
      "Ġpourquoi": 3486,
      "ivre": 3487,
      "Ġlib": 3488,
      "Ġinstall": 3489,
      "uary": 3490,
      "ĠrÃ©glement": 3491,
      "Ġcontribution": 3492,
      "itable": 3493,
      "ior": 3494,
      "Ġbonne": 3495,
      "ails": 3496,
      "Ġfree": 3497,
      "Ġsoutien": 3498,
      "ĠInformation": 3499,
      "ash": 3500,
      "Ġpost": 3501,
      "Ġkey": 3502,
      "ÃĩÃ": 3503,
      "Ġtran": 3504,
      "reen": 3505,
      "apr": 3506,
      "ably": 3507,
      "Ġattention": 3508,
      "ĠÃ©m": 3509,
      "osÃ©": 3510,
      "Ġcivil": 3511,
      "ĠdÃ©cembre": 3512,
      "BAR": 3513,
      "tember": 3514,
      "Ġdois": 3515,
      "ĠBl": 3516,
      "Ġindustry": 3517,
      "annÃ©e": 3518,
      "________________": 3519,
      "istan": 3520,
      "tembre": 3521,
      "OC": 3522,
      "ender": 3523,
      "Ġhaving": 3524,
      "Ġusing": 3525,
      "iÃ¨rement": 3526,
      "Ġfab": 3527,
      "Ġrapports": 3528,
      "ĠRÃ©": 3529,
      "ortion": 3530,
      "Ġheures": 3531,
      "03": 3532,
      "Ġnav": 3533,
      "place": 3534,
      "Ġfar": 3535,
      "2005": 3536,
      "ĠPrem": 3537,
      "ME": 3538,
      "ĠWorld": 3539,
      "Ġabove": 3540,
      "ĠBar": 3541,
      "Ġliber": 3542,
      "Ġposi": 3543,
      "enf": 3544,
      "Ġcertaines": 3545,
      "04": 3546,
      "Ġsystems": 3547,
      "Ġreturn": 3548,
      "Ġtherefore": 3549,
      "Ġstrength": 3550,
      "Ġoutre": 3551,
      "vÃ©": 3552,
      "aprÃ¨s": 3553,
      "Ġenvironnement": 3554,
      "ĠÃ©p": 3555,
      "ĠprÃª": 3556,
      "Ġreste": 3557,
      "Ġprogress": 3558,
      "pril": 3559,
      "RC": 3560,
      "ĠÅĵuvre": 3561,
      "valu": 3562,
      "inion": 3563,
      "Ġfall": 3564,
      "hait": 3565,
      "Ġnight": 3566,
      "ustr": 3567,
      "ĠOne": 3568,
      "Ġinstitution": 3569,
      "Ġturn": 3570,
      "Ġmission": 3571,
      "times": 3572,
      "Ġdos": 3573,
      "ica": 3574,
      "mb": 3575,
      "Ã©rique": 3576,
      "Ġthought": 3577,
      "ensemble": 3578,
      "Ġmars": 3579,
      "ĠDirect": 3580,
      "ervation": 3581,
      "Ġclear": 3582,
      "ĠmatÃ©ri": 3583,
      "Ã¢ce": 3584,
      "Ġ1997": 3585,
      "accÃ¨s": 3586,
      "Ġlorsque": 3587,
      "Ġresponsibil": 3588,
      "tures": 3589,
      "Ġmethod": 3590,
      "ibles": 3591,
      "Ġhold": 3592,
      "Ġuntil": 3593,
      "ĠLook": 3594,
      "Ġadopted": 3595,
      "2006": 3596,
      "ĠdÃ©penses": 3597,
      "Ġreason": 3598,
      "Ġaujourd": 3599,
      "Ġcrimin": 3600,
      "Ġmoney": 3601,
      "Ã©tabl": 3602,
      "Ġvarious": 3603,
      "ĠWho": 3604,
      "Ġsouhait": 3605,
      "tres": 3606,
      "Ġvig": 3607,
      "Ġsimil": 3608,
      "Ġbo": 3609,
      "Ġsein": 3610,
      "Ġauthorities": 3611,
      "Ġproposed": 3612,
      "Ġdue": 3613,
      "Ġmonths": 3614,
      "ĠEnvironment": 3615,
      "ptembre": 3616,
      "Ġcosts": 3617,
      "ĠsystÃ¨mes": 3618,
      "Ġcust": 3619,
      "Ġdifficult": 3620,
      "Ġrun": 3621,
      "Ġministre": 3622,
      "ĠcÃ´": 3623,
      "used": 3624,
      "ĠOF": 3625,
      "ĠOctober": 3626,
      "avoir": 3627,
      "ufact": 3628,
      "Ġvalue": 3629,
      "ĠrÃ©f": 3630,
      "Ġrate": 3631,
      "ĠBel": 3632,
      "lÃ©ments": 3633,
      "Ġsuccess": 3634,
      "ĠPer": 3635,
      "Ġbroad": 3636,
      "Ġforme": 3637,
      "Ġsources": 3638,
      "ley": 3639,
      "ordre": 3640,
      "Ġreceived": 3641,
      "ĠJuly": 3642,
      "Ġapply": 3643,
      "son": 3644,
      "ĠLi": 3645,
      "ĠCel": 3646,
      "ĠSecurity": 3647,
      "Ġproblem": 3648,
      "ĠspÃ©cif": 3649,
      "Ġchap": 3650,
      "ĠRo": 3651,
      "ĠCan": 3652,
      "ĠRÃ©publique": 3653,
      "aged": 3654,
      "02": 3655,
      "Ġmontant": 3656,
      "Ġaccep": 3657,
      "Ġporte": 3658,
      "ĠSecretary": 3659,
      "Ġbou": 3660,
      "ĠsÃ»r": 3661,
      "09": 3662,
      "Ġpouvez": 3663,
      "Ġcy": 3664,
      "Ġliste": 3665,
      "hib": 3666,
      "ĠadoptÃ©": 3667,
      "CC": 3668,
      "ĠSte": 3669,
      "ĠprotÃ©": 3670,
      "wards": 3671,
      "Ġenvironmental": 3672,
      "Ġ1996": 3673,
      "Ġrecent": 3674,
      "ĠMme": 3675,
      "endu": 3676,
      "itaire": 3677,
      "tro": 3678,
      "ĠVo": 3679,
      "ined": 3680,
      "Ġconseil": 3681,
      "acy": 3682,
      "onse": 3683,
      "Ġadj": 3684,
      "phone": 3685,
      "lected": 3686,
      "Ġdetermin": 3687,
      "Ġfive": 3688,
      "Ġagreement": 3689,
      "Ġinvesti": 3690,
      "ĠSub": 3691,
      "acter": 3692,
      "ĠâĢ¢": 3693,
      "Ġwar": 3694,
      "Ġimportance": 3695,
      "awa": 3696,
      "Ġaller": 3697,
      "US": 3698,
      "Organ": 3699,
      "2007": 3700,
      "Ġveut": 3701,
      "ĠSome": 3702,
      "Ġeas": 3703,
      "ĠInter": 3704,
      "IV": 3705,
      "ĠGood": 3706,
      "Ġdevant": 3707,
      "Ġleft": 3708,
      "oci": 3709,
      "ung": 3710,
      "ĠSeptember": 3711,
      "ana": 3712,
      "Ġfont": 3713,
      "Ġhommes": 3714,
      "Ġpil": 3715,
      "Ġpersons": 3716,
      "Ġwhole": 3717,
      "Ġanything": 3718,
      "Ġsing": 3719,
      "Ġmaison": 3720,
      "Ġperformance": 3721,
      "Ġdraft": 3722,
      "Ġville": 3723,
      "Ã»t": 3724,
      "Ġdernier": 3725,
      "ĠAN": 3726,
      "ĠApril": 3727,
      "Ġ)": 3728,
      "Ġpress": 3729,
      "ief": 3730,
      "body": 3731,
      "âĢ¦": 3732,
      "tor": 3733,
      "ĠOntario": 3734,
      "Ġpoursu": 3735,
      "Ġdirection": 3736,
      "ĠAgency": 3737,
      "hold": 3738,
      "Ġweek": 3739,
      "06": 3740,
      "Ġparents": 3741,
      "Ã©can": 3742,
      "trÃ©": 3743,
      "ĠWeb": 3744,
      "Ġsource": 3745,
      "Ġir": 3746,
      "Ġline": 3747,
      "anvier": 3748,
      "Ġmalad": 3749,
      "thers": 3750,
      "Ġrelig": 3751,
      "Ġrac": 3752,
      "ics": 3753,
      "ĠConference": 3754,
      "alogue": 3755,
      "ET": 3756,
      "onds": 3757,
      "ĠRÃ¨g": 3758,
      "ĠJanuary": 3759,
      "Ġplann": 3760,
      "Ġ2012": 3761,
      "Ġfinanc": 3762,
      "Ġsolution": 3763,
      "OS": 3764,
      "ually": 3765,
      "Ġextra": 3766,
      "ĠMinist": 3767,
      "Ġcalcul": 3768,
      "Ġful": 3769,
      "Ġplease": 3770,
      "Ġrequest": 3771,
      "26": 3772,
      "asing": 3773,
      "Ġrules": 3774,
      "Ġquatre": 3775,
      "ĠEst": 3776,
      "ĠintÃ©gr": 3777,
      "Ġgener": 3778,
      "Ġemp": 3779,
      "Ã¨ces": 3780,
      "Ġaffaires": 3781,
      "Ġframework": 3782,
      "dom": 3783,
      "atoire": 3784,
      "Ġprovides": 3785,
      "ĠsÃ©rie": 3786,
      "Ġlab": 3787,
      "Ã©ric": 3788,
      "ĠFrench": 3789,
      "lor": 3790,
      "):": 3791,
      "Ġlevels": 3792,
      "Ġclients": 3793,
      "Ã¨ve": 3794,
      "ĠVer": 3795,
      "Ġcompany": 3796,
      "ĠNove": 3797,
      "ĠprocÃ©dure": 3798,
      "oitation": 3799,
      "Ġbig": 3800,
      "Ġtaking": 3801,
      "Ġcalled": 3802,
      "ified": 3803,
      "Ġdeveloping": 3804,
      "Ġcanadienne": 3805,
      "Ġ2011": 3806,
      "General": 3807,
      "ĠTer": 3808,
      "ling": 3809,
      "Ġexpress": 3810,
      "grÃ©": 3811,
      "Ġlot": 3812,
      "28": 3813,
      "Ġpermet": 3814,
      "Ġtypes": 3815,
      "IR": 3816,
      "Ġcommand": 3817,
      "osp": 3818,
      "Ġterms": 3819,
      "rist": 3820,
      "roit": 3821,
      "aÃ®t": 3822,
      "Ġaj": 3823,
      "ĠDate": 3824,
      "appro": 3825,
      "sie": 3826,
      "Ġcra": 3827,
      "dess": 3828,
      "Ġmatter": 3829,
      "AM": 3830,
      "Ġcelles": 3831,
      "Ġdir": 3832,
      "yer": 3833,
      "ĠResearch": 3834,
      "rup": 3835,
      "ĠpassÃ©": 3836,
      "Ġbring": 3837,
      "ouvernement": 3838,
      "Ġobligations": 3839,
      "ĠÃ©lÃ©ments": 3840,
      "exerc": 3841,
      "Ġconfirm": 3842,
      "ĠpÃ©n": 3843,
      "auv": 3844,
      "imm": 3845,
      "Ġsusp": 3846,
      "ream": 3847,
      "Ġtermin": 3848,
      "ĠÃ©tant": 3849,
      "inst": 3850,
      "Ġlaiss": 3851,
      "grÃ¨s": 3852,
      "Ġtechnique": 3853,
      "Ġeux": 3854,
      "Ġcit": 3855,
      "EP": 3856,
      "Ġ60": 3857,
      "uk": 3858,
      "ĠMed": 3859,
      "ĠFund": 3860,
      "Ġprograms": 3861,
      "Ġtechnologies": 3862,
      "Ġthird": 3863,
      "Ġaspects": 3864,
      "enez": 3865,
      "Ġbecome": 3866,
      "Ġapplicable": 3867,
      "ĠCap": 3868,
      "Ġcapacity": 3869,
      "quÃªte": 3870,
      "ĠTribunal": 3871,
      "ĠYour": 3872,
      "Ġlink": 3873,
      "tient": 3874,
      "ĠPort": 3875,
      "Ġguid": 3876,
      "Ġtard": 3877,
      "enda": 3878,
      "iÃ©e": 3879,
      "Ã¨ce": 3880,
      "Ġmaking": 3881,
      "Ġever": 3882,
      "ĠDirective": 3883,
      "ival": 3884,
      "Ã¡Ã": 3885,
      "Ġseveral": 3886,
      "Ġstudy": 3887,
      "Ġfederal": 3888,
      "Ġtechniques": 3889,
      "Ġstrong": 3890,
      "ĠDep": 3891,
      "rastructure": 3892,
      "ĠNovember": 3893,
      "sc": 3894,
      "Ġtold": 3895,
      "Ġcommerce": 3896,
      "Ġproduct": 3897,
      "ĠdÃ©but": 3898,
      "come": 3899,
      "iance": 3900,
      "Ġimprove": 3901,
      "Ġmai": 3902,
      "aÃ¯": 3903,
      "stances": 3904,
      "ĠÃ¢": 3905,
      "Ġsav": 3906,
      "Ġdevraient": 3907,
      "Ġenergy": 3908,
      "ians": 3909,
      "lections": 3910,
      "Ġvote": 3911,
      "Ġtouch": 3912,
      "Ġitem": 3913,
      "Ġproch": 3914,
      "tivitÃ©s": 3915,
      "ĠParties": 3916,
      "Ġwr": 3917,
      "Ġfins": 3918,
      "Ġdistribution": 3919,
      "Ġcho": 3920,
      "ĠEUR": 3921,
      "atiques": 3922,
      "ĠÃ©n": 3923,
      "Ġtook": 3924,
      "Ġentit": 3925,
      "Ġactive": 3926,
      "Ġaccept": 3927,
      "ĠTHE": 3928,
      "tÃ©rie": 3929,
      "Ġlarg": 3930,
      "Ġmember": 3931,
      "ĠTable": 3932,
      "Ã©ducation": 3933,
      "naires": 3934,
      "Ġminor": 3935,
      "ĠnÃ©cessaires": 3936,
      "icial": 3937,
      "59": 3938,
      "Ġvois": 3939,
      "leg": 3940,
      "Ġlow": 3941,
      "Ġcommenc": 3942,
      "illed": 3943,
      "ctobre": 3944,
      "21": 3945,
      "acitÃ©": 3946,
      "uels": 3947,
      "chan": 3948,
      "ĠsupplÃ©ment": 3949,
      "Ġarticles": 3950,
      "aud": 3951,
      "Organisation": 3952,
      "ĠauprÃ¨s": 3953,
      "agit": 3954,
      "Ġupon": 3955,
      "atural": 3956,
      "Ġforces": 3957,
      "ĠtraitÃ©": 3958,
      "Ġcannot": 3959,
      "lan": 3960,
      "Ġcame": 3961,
      "ĠautoritÃ©s": 3962,
      "Ġbord": 3963,
      "orme": 3964,
      "tices": 3965,
      "Ġreach": 3966,
      "ĠSw": 3967,
      "Ġsafety": 3968,
      "aced": 3969,
      "Ġautom": 3970,
      "Ġmach": 3971,
      "Ġsurveillance": 3972,
      "Ġaucun": 3973,
      "aster": 3974,
      "Ġsyn": 3975,
      "ĠpÃª": 3976,
      "indre": 3977,
      "Ġcoordination": 3978,
      "ibil": 3979,
      "Ġwrit": 3980,
      "Ġgoods": 3981,
      "Ġprotect": 3982,
      "ĠmÃ©can": 3983,
      "ĠSocial": 3984,
      "Ġtop": 3985,
      "Ġzone": 3986,
      "Ġorigin": 3987,
      "Ġconsum": 3988,
      "Ġmonitor": 3989,
      "Ġknowledge": 3990,
      "Ġhard": 3991,
      "Ġleave": 3992,
      "ĠAgre": 3993,
      "Ġcell": 3994,
      "onnes": 3995,
      "Ġpolicies": 3996,
      "ĠBri": 3997,
      "Ġchall": 3998,
      "ĠpÃ¨re": 3999,
      "Ġadditional": 4000,
      "Ġpurs": 4001,
      "Ġwait": 4002,
      "ĠLors": 4003,
      "encies": 4004,
      "Ġcinq": 4005,
      "ĠÃ©trang": 4006,
      "ĠMonsieur": 4007,
      "Ġpatients": 4008,
      "Ġchois": 4009,
      "Ġchance": 4010,
      "hen": 4011,
      "itiz": 4012,
      "ĠnÃ©goci": 4013,
      "face": 4014,
      "actions": 4015,
      "Ġconsist": 4016,
      "ĠGerman": 4017,
      "Ġsoir": 4018,
      "objet": 4019,
      "Ġdeveloped": 4020,
      "Ġaucune": 4021,
      "Ġcondu": 4022,
      "Ġseptembre": 4023,
      "Ġsouvent": 4024,
      "Ġpermis": 4025,
      "Ġlicence": 4026,
      "Ġpratiques": 4027,
      "Ġreports": 4028,
      "ĠTur": 4029,
      "Ġconcerned": 4030,
      "ĠcrÃ©ation": 4031,
      "Ġlight": 4032,
      "tively": 4033,
      "employ": 4034,
      "Ġmun": 4035,
      "Ġfrais": 4036,
      "amÃ©li": 4037,
      "titude": 4038,
      "uve": 4039,
      "ĠPal": 4040,
      "Ġ1995": 4041,
      "Ġtenu": 4042,
      "Ġdri": 4043,
      "Ġcollaboration": 4044,
      "Ġnormes": 4045,
      "ued": 4046,
      "ĠImp": 4047,
      "Ġaider": 4048,
      "Ġrou": 4049,
      "Ġtechnical": 4050,
      "ĠAv": 4051,
      "Ġunivers": 4052,
      "ĠOb": 4053,
      "Ġcomplex": 4054,
      "ĠGl": 4055,
      "industrie": 4056,
      "Ġconse": 4057,
      "tification": 4058,
      "Ġteam": 4059,
      "Ġvot": 4060,
      "ipment": 4061,
      "Ġadap": 4062,
      "Ġlesqu": 4063,
      "ĠMa": 4064,
      "Ġred": 4065,
      "ĠQuel": 4066,
      "Ġcontributions": 4067,
      "Ġdiscrimination": 4068,
      "ĠMad": 4069,
      "ĠderniÃ¨re": 4070,
      "tant": 4071,
      "administration": 4072,
      "ĠÃ©g": 4073,
      "35": 4074,
      "isÃ©e": 4075,
      "Ġtre": 4076,
      "Ġtransf": 4077,
      "Ġemb": 4078,
      "Ġtransfer": 4079,
      "Ġprest": 4080,
      "Ġnetwork": 4081,
      "cy": 4082,
      "ira": 4083,
      "itre": 4084,
      "Ġoctobre": 4085,
      "ĠSecrÃ©taire": 4086,
      "Ġyoung": 4087,
      "ĠGe": 4088,
      "Ġaf": 4089,
      "ĠTreat": 4090,
      "ĠEconomic": 4091,
      "je": 4092,
      "Ã«": 4093,
      "Ġcourt": 4094,
      "udes": 4095,
      "Ã¨ge": 4096,
      "Ġprivate": 4097,
      "Ġsites": 4098,
      "Ġsociale": 4099,
      "ĠrÃ©gions": 4100,
      "Ġmoyens": 4101,
      "ignement": 4102,
      "Ġchoses": 4103,
      "Ġvir": 4104,
      "ĠRoy": 4105,
      "Ġavaient": 4106,
      "ĠcoÃ»ts": 4107,
      "arif": 4108,
      "Ġchanges": 4109,
      "Ġpasse": 4110,
      "Ġinflu": 4111,
      "ontre": 4112,
      "alk": 4113,
      "LE": 4114,
      "Ġmondial": 4115,
      "ĠNord": 4116,
      "Ġfournir": 4117,
      "estic": 4118,
      "duced": 4119,
      "Ġincluded": 4120,
      "Ġokay": 4121,
      "ĠWest": 4122,
      "ĠAnnex": 4123,
      "Ġage": 4124,
      "ĠcapacitÃ©": 4125,
      "Ġsorry": 4126,
      "ttawa": 4127,
      "Ġsw": 4128,
      "change": 4129,
      "ĠPers": 4130,
      "ially": 4131,
      "ĠconfÃ©r": 4132,
      "Ġpen": 4133,
      "ĠCR": 4134,
      "Ġprovision": 4135,
      "2003": 4136,
      "ĠdiffÃ©rents": 4137,
      "ĠQui": 4138,
      "ĠManagement": 4139,
      "Ġeffets": 4140,
      "ĠcatÃ©g": 4141,
      "Ġparticularly": 4142,
      "Ġoffice": 4143,
      "ĠdÃ©cisions": 4144,
      "Ġbody": 4145,
      "2001": 4146,
      "Ġproblems": 4147,
      "Ġensemble": 4148,
      "aille": 4149,
      "icip": 4150,
      "Ġdoc": 4151,
      "Ġstay": 4152,
      "Ã©tÃ©s": 4153,
      "bers": 4154,
      "Ġjuillet": 4155,
      "Ġstandards": 4156,
      "Ġseule": 4157,
      "Ġmobil": 4158,
      "Ġassessment": 4159,
      "ĠfranÃ§": 4160,
      "sy": 4161,
      "Ġ35": 4162,
      "Ġshort": 4163,
      "ustainable": 4164,
      "Ġnombreux": 4165,
      "ĠCal": 4166,
      "veur": 4167,
      "Ġregul": 4168,
      "Ġwish": 4169,
      "though": 4170,
      "Ġjanvier": 4171,
      "dd": 4172,
      ".)": 4173,
      "ering": 4174,
      "Ġfunding": 4175,
      "Ġwon": 4176,
      "ĠCode": 4177,
      "aisse": 4178,
      "Ġcroissance": 4179,
      "Ġimpos": 4180,
      "unch": 4181,
      "nelles": 4182,
      "Ġai": 4183,
      "Ġincreased": 4184,
      "ĠprÃ©cÃ©d": 4185,
      "ĠMinistÃ¨re": 4186,
      "Ġcat": 4187,
      "ĠprÃ¨s": 4188,
      "Ġnove": 4189,
      "Ġdurable": 4190,
      "Ġrisques": 4191,
      "ĠdÃ©lÃ©g": 4192,
      "ĠDiv": 4193,
      "orteur": 4194,
      "Ġconcerning": 4195,
      "Ġ2013": 4196,
      "eal": 4197,
      "ĠrÃ¨gles": 4198,
      "ĠDem": 4199,
      "Ġhistor": 4200,
      ".?": 4201,
      "gÃ©": 4202,
      "Ar": 4203,
      "Ġtir": 4204,
      "Ġhaut": 4205,
      "va": 4206,
      "ĠThank": 4207,
      "Ġtom": 4208,
      "ĠdÃ»": 4209,
      "Ġsout": 4210,
      "Ġsuper": 4211,
      "nÃ©": 4212,
      "Ġemployment": 4213,
      "ĠIsra": 4214,
      "Ġsimple": 4215,
      "ĠCOM": 4216,
      "assif": 4217,
      "ĠHer": 4218,
      "ĠPart": 4219,
      "Ġnovembre": 4220,
      "Ġdel": 4221,
      "Ġexperience": 4222,
      "Ġhowever": 4223,
      "ĠHar": 4224,
      "Ġhon": 4225,
      "Ġproposition": 4226,
      "Ġmondiale": 4227,
      "armon": 4228,
      "aute": 4229,
      "ĠBy": 4230,
      "Ġinnov": 4231,
      "TR": 4232,
      "ige": 4233,
      "ĠrÃ©union": 4234,
      "ĠToute": 4235,
      "tection": 4236,
      "Ġgrowth": 4237,
      "ĠQuand": 4238,
      "Ġefficace": 4239,
      "bec": 4240,
      "endra": 4241,
      "Ġtreatment": 4242,
      "34": 4243,
      "Ġversion": 4244,
      "ĠInstit": 4245,
      "Ġresponsible": 4246,
      "sibles": 4247,
      "des": 4248,
      "icit": 4249,
      "Ã©conom": 4250,
      "Ġvigueur": 4251,
      "Ġnothing": 4252,
      "idd": 4253,
      "ĠExc": 4254,
      "ological": 4255,
      "ĠdeuxiÃ¨me": 4256,
      "Ġposs": 4257,
      "Ġrapid": 4258,
      "Ã®tre": 4259,
      "OU": 4260,
      "Ã©raux": 4261,
      "ĠSupp": 4262,
      "Ġtes": 4263,
      "Ġprogramm": 4264,
      "à¤": 4265,
      "ĠJap": 4266,
      "ĠdÃ©claration": 4267,
      "ĠOther": 4268,
      "icy": 4269,
      "Ġyet": 4270,
      "Ġoffic": 4271,
      "ĠDirector": 4272,
      "Ġmigr": 4273,
      "autor": 4274,
      "Ġmanufact": 4275,
      "aul": 4276,
      "gc": 4277,
      "ĠSy": 4278,
      "Ġlegislation": 4279,
      "ĠRÃ¨glement": 4280,
      "ĠÃĥ": 4281,
      "ills": 4282,
      "ĠKe": 4283,
      "Ġdonne": 4284,
      "Ġouver": 4285,
      "ĠtÃ©lÃ©": 4286,
      "ĠSc": 4287,
      "aining": 4288,
      "ĠProtoc": 4289,
      "ompl": 4290,
      "olid": 4291,
      "option": 4292,
      "Ġpaie": 4293,
      "ĠPlus": 4294,
      "Ġreferred": 4295,
      "Ġlutte": 4296,
      "actÃ©": 4297,
      "Ġpeup": 4298,
      "ĠCommunautÃ©": 4299,
      "acts": 4300,
      "uite": 4301,
      "Ġundert": 4302,
      "Ag": 4303,
      "itch": 4304,
      "Ġwor": 4305,
      "ives": 4306,
      "Ġprep": 4307,
      "Ã©rience": 4308,
      "Ġplein": 4309,
      "Ġinstruments": 4310,
      "venue": 4311,
      "tones": 4312,
      "Ġtend": 4313,
      "Ġseem": 4314,
      "Ġaver": 4315,
      "Ġquar": 4316,
      "Ġaliment": 4317,
      "ĠopÃ©rations": 4318,
      "bes": 4319,
      "Ġprevious": 4320,
      "Ġer": 4321,
      "ĠLaw": 4322,
      "ols": 4323,
      "ĠÃ©conomiques": 4324,
      "ĠmÃ©di": 4325,
      "Ġcommission": 4326,
      "annexe": 4327,
      "Ġmot": 4328,
      "Ġcoming": 4329,
      "Ġwww": 4330,
      "Ġlive": 4331,
      "uent": 4332,
      "ĠSud": 4333,
      "ĠgrÃ¢ce": 4334,
      "TC": 4335,
      "Ġstar": 4336,
      "Ġconsultation": 4337,
      "ĠSection": 4338,
      "Ġcommunautaire": 4339,
      "ĠrÃ©gime": 4340,
      "Ġeconom": 4341,
      "Ġmeasure": 4342,
      "exercice": 4343,
      "Ġserious": 4344,
      "Ġinternationales": 4345,
      "Ġtarg": 4346,
      "Ġeither": 4347,
      "raÃ®": 4348,
      "ochtones": 4349,
      "33": 4350,
      "Ġaurait": 4351,
      "ired": 4352,
      "goti": 4353,
      "bru": 4354,
      "Ġonce": 4355,
      "ĠOÃ¹": 4356,
      "tez": 4357,
      "itions": 4358,
      "ands": 4359,
      "ommun": 4360,
      "avis": 4361,
      "ĠAnn": 4362,
      "Ġdialogue": 4363,
      "Ġpratique": 4364,
      "Ġcode": 4365,
      "rez": 4366,
      "ĠAug": 4367,
      "Ġdomaines": 4368,
      "ĠmÃ¨re": 4369,
      "urant": 4370,
      "ĠSpecial": 4371,
      "ĠAgreement": 4372,
      "wer": 4373,
      "esse": 4374,
      "Ã©hic": 4375,
      "uted": 4376,
      "uge": 4377,
      "icile": 4378,
      "Ġaccording": 4379,
      "Ġ1994": 4380,
      "Ġdossi": 4381,
      "Ġdead": 4382,
      "ĠMc": 4383,
      "itaires": 4384,
      "idents": 4385,
      "Ġmag": 4386,
      "Ġcommunities": 4387,
      "08": 4388,
      "Ġdemandes": 4389,
      "ĠAir": 4390,
      "Ã©vrier": 4391,
      "Ġment": 4392,
      "icro": 4393,
      "Ġavril": 4394,
      "Ġfisc": 4395,
      "ening": 4396,
      "ract": 4397,
      "bruary": 4398,
      "Ġyours": 4399,
      "ĠAllez": 4400,
      "Ġrestric": 4401,
      "rant": 4402,
      "49": 4403,
      "sel": 4404,
      "Ġsuit": 4405,
      "Ġsociety": 4406,
      "Ġpotential": 4407,
      "Ġsurv": 4408,
      "Ġproperty": 4409,
      "member": 4410,
      "assurer": 4411,
      "Ġvrai": 4412,
      "ĠrÃ©par": 4413,
      "Ġseen": 4414,
      "Ġcitoy": 4415,
      "Ġear": 4416,
      "Ġ+": 4417,
      "ologie": 4418,
      "tile": 4419,
      "Ġhor": 4420,
      "Ġtimes": 4421,
      "Ġder": 4422,
      "Ġvisit": 4423,
      "aÃ®tre": 4424,
      "Ġinvolved": 4425,
      "DE": 4426,
      "Ġbil": 4427,
      "ĠprÃ©sident": 4428,
      "ergie": 4429,
      "Ġsouten": 4430,
      "ush": 4431,
      "ĠDid": 4432,
      "ls": 4433,
      "estin": 4434,
      "Ġothers": 4435,
      "Ġchamp": 4436,
      "ĠintÃ©ress": 4437,
      "Ġeverything": 4438,
      "Ġpan": 4439,
      "Ġpast": 4440,
      "erver": 4441,
      "Ġsoins": 4442,
      "Ã©bec": 4443,
      "ĠKing": 4444,
      "Ġlat": 4445,
      "Ġcentral": 4446,
      "Ġcompos": 4447,
      "venant": 4448,
      "Ġpros": 4449,
      "Ġjug": 4450,
      "Ġevidence": 4451,
      "PP": 4452,
      "Ġlanguage": 4453,
      "45": 4454,
      "appel": 4455,
      "En": 4456,
      "ĠMain": 4457,
      "Ġhomme": 4458,
      "Ġtechnology": 4459,
      "Ġhours": 4460,
      "Ġroom": 4461,
      "amm": 4462,
      "Ġshare": 4463,
      "Ġradio": 4464,
      "cast": 4465,
      "ĠSouth": 4466,
      "Ġprovince": 4467,
      "Ġgaranti": 4468,
      "alie": 4469,
      "ĠdÃ©mocra": 4470,
      "orie": 4471,
      "ĠGet": 4472,
      "ĠCela": 4473,
      "ĠcommunautÃ©": 4474,
      "Ġprincipal": 4475,
      "rog": 4476,
      "Ġmechan": 4477,
      "Ã©tais": 4478,
      "Ġrelation": 4479,
      "Ġbegin": 4480,
      "Ġrevenu": 4481,
      "2002": 4482,
      "Ġbat": 4483,
      "Ġgrant": 4484,
      "riculture": 4485,
      "Ġconj": 4486,
      "Ġexigences": 4487,
      "Ġminimum": 4488,
      "Ġ#": 4489,
      "ony": 4490,
      "ĠvÃ©hic": 4491,
      "ĠTechn": 4492,
      "naire": 4493,
      "ara": 4494,
      "Ġoperations": 4495,
      "isÃ©es": 4496,
      "OT": 4497,
      "leur": 4498,
      "Ã©rÃ©": 4499,
      "CP": 4500,
      "Ġoften": 4501,
      "Ġtermes": 4502,
      "temps": 4503,
      "ĠAfrica": 4504,
      "ĠChe": 4505,
      "Ġmind": 4506,
      "Ġsignal": 4507,
      "arri": 4508,
      "Ġstop": 4509,
      "Ġobtain": 4510,
      "Ġproceed": 4511,
      "Ġexclus": 4512,
      "istry": 4513,
      "Ġproposal": 4514,
      "duce": 4515,
      "Ġmandat": 4516,
      "IH": 4517,
      "ĠPlease": 4518,
      "Ġ1990": 4519,
      "tm": 4520,
      "Ġsuivi": 4521,
      "pecially": 4522,
      "oins": 4523,
      "Ġwanted": 4524,
      "Â».": 4525,
      "Ġachieve": 4526,
      "ĠTreaty": 4527,
      "Ġstandard": 4528,
      "isant": 4529,
      "Ġbureau": 4530,
      "upart": 4531,
      "Ġmaintain": 4532,
      "ĠdemandÃ©": 4533,
      "uty": 4534,
      "Ġpublication": 4535,
      "Ġground": 4536,
      "Ġanaly": 4537,
      "Ġtranspar": 4538,
      "Ġdess": 4539,
      "Ġboy": 4540,
      "ounts": 4541,
      "Ġopinion": 4542,
      "31": 4543,
      "Ġplupart": 4544,
      "Ġpersonal": 4545,
      "07": 4546,
      "ĠYork": 4547,
      "Ġequipment": 4548,
      "avais": 4549,
      "An": 4550,
      "Ġpermettre": 4551,
      "utÃ´t": 4552,
      "Ġpropre": 4553,
      "ĠUniversity": 4554,
      "oe": 4555,
      "Ġenough": 4556,
      "Ã¤": 4557,
      "Ã©nergie": 4558,
      "Ġacross": 4559,
      "Ġbad": 4560,
      "ĠBro": 4561,
      "ĠrÃ©fÃ©rence": 4562,
      "Ãªtes": 4563,
      "Ġactivity": 4564,
      "Ġcrime": 4565,
      "Ġforeign": 4566,
      "Ġtels": 4567,
      "Ġconcl": 4568,
      "Ġenreg": 4569,
      "aison": 4570,
      "Ġtel": 4571,
      "ĠAmend": 4572,
      "Ġchac": 4573,
      "Ġconcurr": 4574,
      "Ġphy": 4575,
      "Ġfeu": 4576,
      "utive": 4577,
      "Ġcommuni": 4578,
      "Ġquelqu": 4579,
      "Ġprise": 4580,
      "Ġapprou": 4581,
      "Ġsolutions": 4582,
      "2000": 4583,
      "ĠFebruary": 4584,
      "Am": 4585,
      "aps": 4586,
      "Ġexisting": 4587,
      "Ġprocedures": 4588,
      "Ġpasser": 4589,
      "Ġdeath": 4590,
      "Ġevent": 4591,
      "Ġtrouve": 4592,
      "ĠdiffÃ©rentes": 4593,
      "----": 4594,
      "Ġguy": 4595,
      "Ġinitiative": 4596,
      "Ġbook": 4597,
      "Ġcommunications": 4598,
      "Ġincome": 4599,
      "Ġpercent": 4600,
      "Ġassist": 4601,
      "Ġassurer": 4602,
      "ĠresponsabilitÃ©": 4603,
      "Ġclient": 4604,
      "Ġlater": 4605,
      "Ã©cution": 4606,
      "ĠProv": 4607,
      "itiative": 4608,
      "ĠConfÃ©rence": 4609,
      "ablement": 4610,
      "Ġleaders": 4611,
      "Ġpurpose": 4612,
      "ĠprocÃ©dures": 4613,
      "67": 4614,
      "PS": 4615,
      "otal": 4616,
      "ĠÃ©tudes": 4617,
      "Ġmove": 4618,
      "ĠQuÃ©bec": 4619,
      "ha": 4620,
      "ocation": 4621,
      "IM": 4622,
      "see": 4623,
      "Ãªmes": 4624,
      "Ġmanif": 4625,
      "Ġdiscuss": 4626,
      "avantage": 4627,
      "Ġanalysis": 4628,
      "ĠCE": 4629,
      "ows": 4630,
      "Ġpertin": 4631,
      "argent": 4632,
      "Ġdemander": 4633,
      "lear": 4634,
      "ining": 4635,
      "Ġmari": 4636,
      "ĠChrist": 4637,
      "Ġdrug": 4638,
      "Ġvill": 4639,
      "ĠprÃ©occup": 4640,
      "ĠrÃ©seau": 4641,
      "Ġattrib": 4642,
      "most": 4643,
      "Ġarrang": 4644,
      "%)": 4645,
      "Ġvehic": 4646,
      "55": 4647,
      "olÃ©": 4648,
      "Al": 4649,
      "eria": 4650,
      "Ġrecommandations": 4651,
      "ĠFran": 4652,
      "Ġrendre": 4653,
      "eries": 4654,
      "ided": 4655,
      "heure": 4656,
      "Ġengagement": 4657,
      "Ġbenefits": 4658,
      "Ã©gard": 4659,
      "37": 4660,
      "Ġcru": 4661,
      "Ġobjectives": 4662,
      "Ġsubmitted": 4663,
      "Ġsingle": 4664,
      "Ġadministrative": 4665,
      "trer": 4666,
      "iversitÃ©": 4667,
      "Ġfille": 4668,
      "Ġprises": 4669,
      "ignes": 4670,
      "Ġsorte": 4671,
      "osph": 4672,
      "tissement": 4673,
      "fait": 4674,
      "Ġnationales": 4675,
      "Ġaide": 4676,
      "Ġsumm": 4677,
      "Ġconver": 4678,
      "Ġpal": 4679,
      "Ġelse": 4680,
      "ĠministÃ¨re": 4681,
      "39": 4682,
      "ĠSaint": 4683,
      "entral": 4684,
      "Ġrange": 4685,
      "ordin": 4686,
      "Ġnormal": 4687,
      "mÃªme": 4688,
      "Ġnegoti": 4689,
      "ĠmarchÃ©s": 4690,
      "Ġdim": 4691,
      "Ġacces": 4692,
      "intÃ©gr": 4693,
      "On": 4694,
      "Ġclose": 4695,
      "Ġmessage": 4696,
      "Ġdisposition": 4697,
      "Ġdiscussion": 4698,
      "iant": 4699,
      "Ġcontinuer": 4700,
      "ĠCH": 4701,
      "ĠÃītat": 4702,
      "CH": 4703,
      "TA": 4704,
      "Ġenj": 4705,
      "Ġmilieu": 4706,
      "TM": 4707,
      "ĠrÃ©ponse": 4708,
      "Ġchef": 4709,
      "Ġzones": 4710,
      "88": 4711,
      "isations": 4712,
      "Ġrepro": 4713,
      "Ġreported": 4714,
      "Ġdam": 4715,
      "sition": 4716,
      "Ġsecret": 4717,
      "uts": 4718,
      "alitÃ©s": 4719,
      "olutions": 4720,
      "ĠvÃ©r": 4721,
      "ĠreprÃ©sentants": 4722,
      "ĠprogrÃ¨s": 4723,
      "ĠIndi": 4724,
      "key": 4725,
      "Ġheure": 4726,
      "ĠreÃ§u": 4727,
      "ĠParis": 4728,
      "Ġcred": 4729,
      "ĠVal": 4730,
      "Ġdoesn": 4731,
      "ma": 4732,
      "Ġorganisation": 4733,
      "Ġorganization": 4734,
      "Ġlangue": 4735,
      "Ġmunicip": 4736,
      "ĠPac": 4737,
      "ĠparticuliÃ¨rement": 4738,
      "Ġqualif": 4739,
      "ĠDan": 4740,
      "Ġenh": 4741,
      "Ġformul": 4742,
      "Ġcompanies": 4743,
      "Ġinten": 4744,
      "ĠThen": 4745,
      "Ġlimit": 4746,
      "glish": 4747,
      "47": 4748,
      "Ã©taire": 4749,
      "Ġdescrib": 4750,
      "Ġchoix": 4751,
      "raft": 4752,
      "ĠstratÃ©gie": 4753,
      "Ġurg": 4754,
      "iennent": 4755,
      "ĠdÃ©terminer": 4756,
      "Ġavis": 4757,
      "Ġcherche": 4758,
      "Ġmaximum": 4759,
      "ĠfinanciÃ¨re": 4760,
      "Ġeth": 4761,
      "Ġmarchand": 4762,
      "onstr": 4763,
      "alyse": 4764,
      "ĠAprÃ¨s": 4765,
      "Ġlorsqu": 4766,
      "ĠrÃ©duire": 4767,
      "ĠAffairs": 4768,
      "ĠSee": 4769,
      "Ġvoud": 4770,
      "ambre": 4771,
      "hÃ©": 4772,
      "Ġknown": 4773,
      "ĠTransport": 4774,
      "Ã¨de": 4775,
      "aging": 4776,
      "Ġappear": 4777,
      "effic": 4778,
      "uh": 4779,
      "vers": 4780,
      "Ġwent": 4781,
      "ically": 4782,
      "bourg": 4783,
      "Ġcitiz": 4784,
      "Ġauthority": 4785,
      ")(": 4786,
      "elines": 4787,
      "anding": 4788,
      "Ġsac": 4789,
      "Ġlik": 4790,
      "Ġguerre": 4791,
      "ĠAccord": 4792,
      "dam": 4793,
      "ĠAtt": 4794,
      "ĠProp": 4795,
      "Ġrates": 4796,
      "Ġhope": 4797,
      "tish": 4798,
      "tier": 4799,
      "2008": 4800,
      "Ġsuivants": 4801,
      "Ġearly": 4802,
      "Ġcompli": 4803,
      "tout": 4804,
      "ONU": 4805,
      "Ġprocedure": 4806,
      "Ġrecommendations": 4807,
      "Ġgreater": 4808,
      "rage": 4809,
      "rÃªts": 4810,
      "Ġconsultations": 4811,
      "new": 4812,
      "ump": 4813,
      "Ġposte": 4814,
      "Ġvoie": 4815,
      "IF": 4816,
      "ilÃł": 4817,
      "venu": 4818,
      "Ġ45": 4819,
      "oÃ»t": 4820,
      "aries": 4821,
      "Ġfondament": 4822,
      "Ġaille": 4823,
      "ĠMes": 4824,
      "ĠemployÃ©s": 4825,
      "Ġbill": 4826,
      "Ġhot": 4827,
      "amin": 4828,
      "ouvoir": 4829,
      "Ġapplications": 4830,
      "36": 4831,
      "Ġwel": 4832,
      "htm": 4833,
      "ĠLA": 4834,
      "ĠPat": 4835,
      "ING": 4836,
      "xte": 4837,
      "urent": 4838,
      "Ġbuilding": 4839,
      "dy": 4840,
      "Ġbeau": 4841,
      "ĠplutÃ´t": 4842,
      "Ġchangements": 4843,
      "Ġresponse": 4844,
      "Ġmine": 4845,
      "ĠHigh": 4846,
      "Ġfocus": 4847,
      "ĠNum": 4848,
      "Ġrenforcer": 4849,
      "Ġnationaux": 4850,
      "ional": 4851,
      "Ġemerg": 4852,
      "ĠAugust": 4853,
      "inqu": 4854,
      "atures": 4855,
      "Ġsuivant": 4856,
      "rÃ©e": 4857,
      "ĠWill": 4858,
      "à¸": 4859,
      "Ġparc": 4860,
      "ĠBank": 4861,
      "Ġkill": 4862,
      "original": 4863,
      "Ġjoin": 4864,
      "ffic": 4865,
      "Ġprevent": 4866,
      "Ġtravers": 4867,
      "ĠâĢĺ": 4868,
      "arian": 4869,
      "mment": 4870,
      "Ġstatus": 4871,
      "Ġangl": 4872,
      "Ġmut": 4873,
      "aving": 4874,
      "Ġproviding": 4875,
      "Ġliving": 4876,
      "Ġprepar": 4877,
      "Ã©laboration": 4878,
      "Ġaffect": 4879,
      "ĠÃ©lectron": 4880,
      "ĠJustice": 4881,
      "enz": 4882,
      "anges": 4883,
      "Ġeffects": 4884,
      "Ġsecteurs": 4885,
      "Ġoutside": 4886,
      "ĠCON": 4887,
      "ĠcomitÃ©": 4888,
      "Ġtrou": 4889,
      "Ġannual": 4890,
      "Ġobtenir": 4891,
      "ĠrÃ©sid": 4892,
      "umb": 4893,
      "Ġdise": 4894,
      "verse": 4895,
      "aque": 4896,
      "ĠÃ©lect": 4897,
      "Ġprison": 4898,
      "48": 4899,
      "Ġnatural": 4900,
      "ĠindÃ©p": 4901,
      "osure": 4902,
      "Ã©tat": 4903,
      "Ġfigure": 4904,
      "Ġneeded": 4905,
      "Ġtravaill": 4906,
      "Ġindep": 4907,
      "Ġespecially": 4908,
      "ĠMore": 4909,
      "ĠOur": 4910,
      "CR": 4911,
      "Ġperspec": 4912,
      "ruit": 4913,
      "Ã¨rent": 4914,
      "Ġvou": 4915,
      "Ġaltern": 4916,
      "Ġtravel": 4917,
      "Â´": 4918,
      "Ġtowards": 4919,
      "bert": 4920,
      "br": 4921,
      "Ġsubstances": 4922,
      "unt": 4923,
      "entreprise": 4924,
      "Ġresponsibility": 4925,
      "Ġnuit": 4926,
      "Ġpartenaires": 4927,
      "DP": 4928,
      "Ġjournal": 4929,
      "Ã©der": 4930,
      "Ġcommune": 4931,
      "ĠnumÃ©ro": 4932,
      "Ġfunction": 4933,
      "Ġphys": 4934,
      "ĠCO": 4935,
      "Ġalong": 4936,
      "Ġattend": 4937,
      "Ġconvention": 4938,
      "lles": 4939,
      "ĠMich": 4940,
      "Ġnoted": 4941,
      "ellect": 4942,
      "Ġprincipes": 4943,
      "oke": 4944,
      "Ġteach": 4945,
      "Ġterm": 4946,
      "à¸Ģ": 4947,
      "Ġfils": 4948,
      "Ġfaveur": 4949,
      "Ġdecisions": 4950,
      "Ġcharacter": 4951,
      "ueill": 4952,
      "ologique": 4953,
      "Ġfich": 4954,
      "Ġtexte": 4955,
      "Ġfaites": 4956,
      "Ġvisite": 4957,
      "ĠDivision": 4958,
      "iche": 4959,
      "Ġcontent": 4960,
      "Ġ2014": 4961,
      "Ġemployees": 4962,
      "ĠcrÃ©er": 4963,
      "Ġterritoire": 4964,
      "Ġinvestment": 4965,
      "Ġtelle": 4966,
      "ĠGouvernement": 4967,
      "Ġperf": 4968,
      "Ġbudg": 4969,
      "Ġpositive": 4970,
      "Ġsimilar": 4971,
      "ĠRel": 4972,
      "Ġbelow": 4973,
      "Ġbenefit": 4974,
      "ĠIII": 4975,
      "odies": 4976,
      "quÃ©e": 4977,
      "ĠBan": 4978,
      "Ġpopulations": 4979,
      "aime": 4980,
      "Ġsemaine": 4981,
      "Ġmother": 4982,
      "organisation": 4983,
      "38": 4984,
      "Ġfine": 4985,
      "Ġstation": 4986,
      "Ġprovincial": 4987,
      "importance": 4988,
      "orial": 4989,
      "activitÃ©": 4990,
      "arb": 4991,
      "Ġhigher": 4992,
      "Ġenvoy": 4993,
      "Ġutiliser": 4994,
      "Ġpermanent": 4995,
      "Ġmonitoring": 4996,
      "intÃ©rÃªt": 4997,
      "32": 4998,
      "aign": 4999,
      "ĠSup": 5000,
      "Ġdanger": 5001,
      "sych": 5002,
      "origine": 5003,
      "Ġlequel": 5004,
      "Ġfront": 5005,
      "Ġpaid": 5006,
      "ĠfÃ©vrier": 5007,
      "quÃ©s": 5008,
      "ĠBec": 5009,
      "Ġimportante": 5010,
      "oie": 5011,
      "Ġgaz": 5012,
      "Ġincreasing": 5013,
      "SA": 5014,
      "Ġroute": 5015,
      "dre": 5016,
      "tÃ©e": 5017,
      "Ġcertific": 5018,
      "ĠEnglish": 5019,
      "Ġbreak": 5020,
      "ĠpÃªche": 5021,
      "Ġ90": 5022,
      "Le": 5023,
      "poration": 5024,
      "ĠCro": 5025,
      "ĠHere": 5026,
      "aume": 5027,
      "Ġguys": 5028,
      "Ġformer": 5029,
      "tent": 5030,
      "Ġcity": 5031,
      "Ġfather": 5032,
      "Ġsuc": 5033,
      "Ġaccomp": 5034,
      "Ġaccompl": 5035,
      "Ġorient": 5036,
      "Ġvenir": 5037,
      "ĠEvery": 5038,
      "Ġphase": 5039,
      "Ġactuellement": 5040,
      "ĠdurÃ©e": 5041,
      "hips": 5042,
      "rought": 5043,
      "Ġphysi": 5044,
      "Ġcentres": 5045,
      "Ġprice": 5046,
      "anced": 5047,
      "Â»,": 5048,
      "Ġregarding": 5049,
      "Ġmodern": 5050,
      "Ġjustif": 5051,
      "ĠPolicy": 5052,
      "Ġterre": 5053,
      "ĠÃ©quip": 5054,
      "ĠpossibilitÃ©": 5055,
      "mer": 5056,
      "Ġlooking": 5057,
      "Ġmiss": 5058,
      "rab": 5059,
      "Ġrespond": 5060,
      "ĠSon": 5061,
      "Ġofficial": 5062,
      "Ġpack": 5063,
      "ĠOf": 5064,
      "ospital": 5065,
      "exploitation": 5066,
      "based": 5067,
      "auvre": 5068,
      "Ġpromote": 5069,
      "IA": 5070,
      "Ch": 5071,
      "dÃ©": 5072,
      "ee": 5073,
      "ĠOp": 5074,
      "ĠForm": 5075,
      "ĠarrÃª": 5076,
      "uellement": 5077,
      "Ġwind": 5078,
      "ĠTor": 5079,
      "ott": 5080,
      "Ġsoon": 5081,
      "Ġconsac": 5082,
      "ĠAssociation": 5083,
      "Ġexpected": 5084,
      "Ġcontext": 5085,
      "Ġgouvernements": 5086,
      "57": 5087,
      "ĠOttawa": 5088,
      "Ġdirectement": 5089,
      "aissance": 5090,
      "ĠsÃ©lection": 5091,
      "vi": 5092,
      "Ġside": 5093,
      "Ġvolont": 5094,
      "chÃ©": 5095,
      "Ġ1993": 5096,
      "usement": 5097,
      "ĠSelon": 5098,
      "vec": 5099,
      "Ġaura": 5100,
      "Ġsenti": 5101,
      "yle": 5102,
      "Ġ=": 5103,
      "ĠrÃ©duction": 5104,
      "Ġtort": 5105,
      "issements": 5106,
      "Ġpotenti": 5107,
      "Ġwrong": 5108,
      "Ġ36": 5109,
      "Ġcarry": 5110,
      "ĠrÃ©pondre": 5111,
      "Ġoui": 5112,
      "ored": 5113,
      "Ġsort": 5114,
      "ester": 5115,
      "Ġrelating": 5116,
      "Ġworkers": 5117,
      "Ġpractices": 5118,
      "IB": 5119,
      "erm": 5120,
      "Ġcarried": 5121,
      "ĠcontrÃ´": 5122,
      "ĠtÃªte": 5123,
      "ĠSci": 5124,
      "uns": 5125,
      "ĠAny": 5126,
      "ĠamÃ©liorer": 5127,
      "ĠSoci": 5128,
      "Ġfriend": 5129,
      "**": 5130,
      "Ġlois": 5131,
      "Ġ2015": 5132,
      "Ġhom": 5133,
      "ĠlÃ©gislation": 5134,
      "ĠDecision": 5135,
      "ION": 5136,
      "Ġtenir": 5137,
      "dire": 5138,
      "toi": 5139,
      "Ġasked": 5140,
      "Ġself": 5141,
      "ĠtÃ©m": 5142,
      "ĠAfter": 5143,
      "Ġpurposes": 5144,
      "Ġimpl": 5145,
      "Ġplanning": 5146,
      "Ġfight": 5147,
      "ĠcÃ´tÃ©": 5148,
      "Ġcompagn": 5149,
      "Ġjuridique": 5150,
      "Ġailleurs": 5151,
      "Ġcurrently": 5152,
      "Ġsang": 5153,
      "riÃ¨re": 5154,
      "head": 5155,
      "Ġdipl": 5156,
      "Ġordin": 5157,
      "Ġpourraient": 5158,
      "Ġsafe": 5159,
      "Ġassez": 5160,
      "inves": 5161,
      "arante": 5162,
      "ĠopÃ©ration": 5163,
      "Ġpractice": 5164,
      "Ġempl": 5165,
      "ĠcaractÃ©": 5166,
      "avez": 5167,
      "ĠmÃ©t": 5168,
      "Ġagencies": 5169,
      "................": 5170,
      "58": 5171,
      "ueil": 5172,
      "Ġsuivantes": 5173,
      "Ġhappened": 5174,
      "Ġcompens": 5175,
      "antit": 5176,
      "Ġmakes": 5177,
      "Ġvoyage": 5178,
      "Ġpetite": 5179,
      "Ġspeak": 5180,
      "ttes": 5181,
      "Ġ80": 5182,
      "pe": 5183,
      "Ġforward": 5184,
      "Off": 5185,
      "Ġ1992": 5186,
      "Ġbiens": 5187,
      "Ġjoint": 5188,
      "diction": 5189,
      "Ġfamil": 5190,
      "ĠAh": 5191,
      "ney": 5192,
      "aring": 5193,
      "ecutive": 5194,
      "ĠBritish": 5195,
      "AF": 5196,
      "Ġreform": 5197,
      "Ġreference": 5198,
      "99": 5199,
      "forme": 5200,
      "Ġopportunity": 5201,
      "Ġait": 5202,
      "tenant": 5203,
      "Ġfunds": 5204,
      ",\"": 5205,
      "more": 5206,
      "Ġdavantage": 5207,
      "ĠutilisÃ©": 5208,
      "Ġey": 5209,
      "ĠRegulations": 5210,
      "ĠexÃ©c": 5211,
      "ĠmodÃ¨le": 5212,
      "Ġprincipe": 5213,
      "Ġsembl": 5214,
      "Ġcustom": 5215,
      "Ġsepar": 5216,
      "Ġcross": 5217,
      "Ġdimin": 5218,
      "ĠGovern": 5219,
      "ĠprÃ©senter": 5220,
      "ĠprÃ©vention": 5221,
      "Ã©rieur": 5222,
      "Ġconclusions": 5223,
      "Ġparmi": 5224,
      "Ġfacilit": 5225,
      "Ġagents": 5226,
      "Ġidea": 5227,
      "Ġviv": 5228,
      "Ġfort": 5229,
      "Ġsoulign": 5230,
      "ĠlÃ©gisl": 5231,
      "ding": 5232,
      "ĠBra": 5233,
      "Ġroad": 5234,
      "ĠSer": 5235,
      "ĠJourn": 5236,
      "Ġ37": 5237,
      "ĠrÃ©serv": 5238,
      "Ġadministr": 5239,
      "Ġthreat": 5240,
      "ĠdÃ©fense": 5241,
      "claration": 5242,
      "ĠSum": 5243,
      "Ġexception": 5244,
      "lectric": 5245,
      "ĠmÃ©dec": 5246,
      "Ġamb": 5247,
      "where": 5248,
      "ĠÂ»,": 5249,
      "Ġstrategy": 5250,
      "Ġtransition": 5251,
      "Ġrather": 5252,
      "ĠCanadians": 5253,
      "ĠamÃ©ric": 5254,
      "Ġdirectly": 5255,
      "ĠBecause": 5256,
      "ĠCa": 5257,
      "ama": 5258,
      "ismes": 5259,
      "Ġlearn": 5260,
      "Ġsociaux": 5261,
      "Ġcultural": 5262,
      "ĠAvec": 5263,
      "lands": 5264,
      "rel": 5265,
      "SP": 5266,
      "Ġpublics": 5267,
      "ĠTw": 5268,
      "Ġstudies": 5269,
      "OD": 5270,
      "ĠSm": 5271,
      "bres": 5272,
      "zer": 5273,
      "arde": 5274,
      "ĠAmerica": 5275,
      "Ġretr": 5276,
      "ades": 5277,
      "ciper": 5278,
      "lande": 5279,
      "CEE": 5280,
      "rement": 5281,
      "66": 5282,
      "Ġlonger": 5283,
      "Ġniveaux": 5284,
      "ĠAmerican": 5285,
      "prit": 5286,
      "Ġheart": 5287,
      "Ġcam": 5288,
      "ĠfrÃ©": 5289,
      "Ġclin": 5290,
      "Ġsemble": 5291,
      "ĠdÃ©ch": 5292,
      "ĠON": 5293,
      "Ġcarb": 5294,
      "Ġtelles": 5295,
      "Ġrecours": 5296,
      "berta": 5297,
      "Ġcorps": 5298,
      "uro": 5299,
      "Ġcapit": 5300,
      "Ġprovinces": 5301,
      "Ġvoulez": 5302,
      "ĠEN": 5303,
      "abord": 5304,
      "Ġsir": 5305,
      "appui": 5306,
      "Ġconfer": 5307,
      "Ġfinanciers": 5308,
      "Ã©tude": 5309,
      "Ġachie": 5310,
      "Ġcomprendre": 5311,
      "Ġsays": 5312,
      "Ġautochtones": 5313,
      "Ġincor": 5314,
      "Ġmarchandises": 5315,
      "Ġsett": 5316,
      "irit": 5317,
      "aby": 5318,
      "Ġidentified": 5319,
      "auteur": 5320,
      "Ġurb": 5321,
      "ĠET": 5322,
      "Ġsomeone": 5323,
      "Ġevaluation": 5324,
      "Ġclaire": 5325,
      "Ġsustainable": 5326,
      "ĠAction": 5327,
      "Ġoffre": 5328,
      "Ġsurface": 5329,
      "ĠHis": 5330,
      "inÃ©a": 5331,
      "nous": 5332,
      "Ġpoll": 5333,
      "MP": 5334,
      "fic": 5335,
      "Ġprend": 5336,
      "Ġtrying": 5337,
      "gent": 5338,
      "ĠFonds": 5339,
      "elling": 5340,
      "Ġtravailleurs": 5341,
      "Ġpromouvoir": 5342,
      "ĠSa": 5343,
      "Ġago": 5344,
      "ĠTotal": 5345,
      "Ġreporting": 5346,
      "ĠEd": 5347,
      "Ġcombat": 5348,
      "Ġmodel": 5349,
      "44": 5350,
      "equ": 5351,
      "Ġpied": 5352,
      "Ġtempor": 5353,
      "Ġlum": 5354,
      "Ġportant": 5355,
      "!!": 5356,
      "ĠToutefois": 5357,
      "Ġsaw": 5358,
      "Ġaverage": 5359,
      "exÃ©cution": 5360,
      "Ġprincipaux": 5361,
      "Ġexperts": 5362,
      "Ġdomestic": 5363,
      "ĠBud": 5364,
      "Ġincludes": 5365,
      "Ġdurant": 5366,
      "Ġvaleurs": 5367,
      "ipp": 5368,
      "agers": 5369,
      "Ġpreuve": 5370,
      "Ġremar": 5371,
      "AG": 5372,
      "Ġhalf": 5373,
      "eting": 5374,
      "Ġessay": 5375,
      "Ġincl": 5376,
      "Ġnombreuses": 5377,
      "Ġproportion": 5378,
      "Ġdevons": 5379,
      "Ġ38": 5380,
      "ĠCertain": 5381,
      "Ġplain": 5382,
      "tÃ©es": 5383,
      "tenir": 5384,
      "Ġlibre": 5385,
      "Ġrencon": 5386,
      "Ġstatut": 5387,
      "ĠDES": 5388,
      "Ġmilitary": 5389,
      "lier": 5390,
      "ĠtrouvÃ©": 5391,
      "ĠPap": 5392,
      "ĠdÃ©si": 5393,
      "anci": 5394,
      "Ġassociated": 5395,
      "ĠfÃ©dÃ©ral": 5396,
      "inform": 5397,
      "ĠCanadiens": 5398,
      "Ġpauvre": 5399,
      "198": 5400,
      "iennes": 5401,
      "Ġagreed": 5402,
      "ising": 5403,
      "ĠcapacitÃ©s": 5404,
      "ĠRapport": 5405,
      "Ġdispar": 5406,
      "ĠIsrael": 5407,
      "Af": 5408,
      "Ġfonctions": 5409,
      "Ġrele": 5410,
      "Ġvolume": 5411,
      "ĠWorking": 5412,
      "ĠOK": 5413,
      "Ġadministration": 5414,
      "Ġdat": 5415,
      "habit": 5416,
      "Ġcheck": 5417,
      "wan": 5418,
      "ĠGra": 5419,
      "lam": 5420,
      "ĠDocu": 5421,
      "ĠExp": 5422,
      "ĠOrganization": 5423,
      "Ġvient": 5424,
      "Ġeffectu": 5425,
      "Ġvul": 5426,
      "Ġremember": 5427,
      "Ġagenda": 5428,
      "ĠMission": 5429,
      "Ġtechnologie": 5430,
      "bsite": 5431,
      "uild": 5432,
      "Ġapproved": 5433,
      "ĠmÃ©thodes": 5434,
      "ĠgÃ©": 5435,
      "Ġmodifications": 5436,
      "oque": 5437,
      "atur": 5438,
      "ĠCommissioner": 5439,
      "Ġfilm": 5440,
      "Ġentire": 5441,
      "ĠdÃ¨s": 5442,
      "Ġtent": 5443,
      "Ġheard": 5444,
      "63": 5445,
      "lin": 5446,
      "Ġmys": 5447,
      "veness": 5448,
      "appli": 5449,
      "Ġitself": 5450,
      "cÃ©": 5451,
      "ritann": 5452,
      "ĠpropriÃ©tÃ©": 5453,
      "any": 5454,
      "ĠMod": 5455,
      "ĠaccÃ¨s": 5456,
      "Ġcomplete": 5457,
      "oid": 5458,
      "usse": 5459,
      "Ġagreements": 5460,
      "ĠÃ©crit": 5461,
      "ĠnuclÃ©": 5462,
      "asser": 5463,
      "Ġgenre": 5464,
      "vÃ©e": 5465,
      "Ġdepartment": 5466,
      ".âĢĿ": 5467,
      "Ġgetting": 5468,
      "Ġvoiture": 5469,
      "uelles": 5470,
      "istÃ©": 5471,
      "IG": 5472,
      "Ġ00": 5473,
      "ĠSl": 5474,
      "emper": 5475,
      "Ġpois": 5476,
      "ares": 5477,
      "Ġgas": 5478,
      "Ġchangement": 5479,
      "Ġcomporte": 5480,
      "IE": 5481,
      "Ġnotes": 5482,
      "Ġresponsable": 5483,
      "Ġimmedi": 5484,
      "Ġchalleng": 5485,
      "ĠÃ©tat": 5486,
      "ĠcritÃ¨res": 5487,
      "UL": 5488,
      "user": 5489,
      "ĠlibertÃ©": 5490,
      "Ġcompon": 5491,
      "TS": 5492,
      "Ġencourage": 5493,
      "Ġdisponibles": 5494,
      "ĠEtats": 5495,
      "Ġlimited": 5496,
      "DF": 5497,
      "quant": 5498,
      "Ġwords": 5499,
      "Ã«l": 5500,
      "Ġbois": 5501,
      "ĠMont": 5502,
      "Ġarch": 5503,
      "Ġblood": 5504,
      "eness": 5505,
      "Ġstress": 5506,
      "Ġpension": 5507,
      "Ã©tablissement": 5508,
      "mon": 5509,
      "Ġsuffis": 5510,
      "ĠWas": 5511,
      "ĠÃ©gard": 5512,
      "Ã©conomie": 5513,
      "Ġcateg": 5514,
      "Ġparticiper": 5515,
      "Ġcomplet": 5516,
      "Ġanci": 5517,
      "ĠDu": 5518,
      "istered": 5519,
      "Ġcitizens": 5520,
      "onto": 5521,
      "ĠrÃ©gul": 5522,
      "ĠSam": 5523,
      "objec": 5524,
      "Office": 5525,
      "Ġmauv": 5526,
      "pection": 5527,
      "Ġloss": 5528,
      "orrow": 5529,
      "Ġbrought": 5530,
      "ĠnÃ©cessitÃ©": 5531,
      "ĠBelg": 5532,
      "utri": 5533,
      "Ġappu": 5534,
      "ĠChap": 5535,
      "ĠIm": 5536,
      "Ġinternationaux": 5537,
      "Ġsituations": 5538,
      "ĠcaractÃ©ris": 5539,
      "????": 5540,
      "Ġcontexte": 5541,
      "Ġsound": 5542,
      "tÃ©rieur": 5543,
      "ĠChild": 5544,
      "Ġfacteurs": 5545,
      "Ġconsideration": 5546,
      "Ġlac": 5547,
      "Ġexiste": 5548,
      "Ġtry": 5549,
      "PC": 5550,
      "Ġlabour": 5551,
      "ĠCN": 5552,
      "Ã¨tres": 5553,
      "Ġdemonstr": 5554,
      "ĠCF": 5555,
      "ĠderniÃ¨res": 5556,
      "Ġtiers": 5557,
      "Ġexten": 5558,
      "ĠdÃ©bat": 5559,
      "iation": 5560,
      "ĠNor": 5561,
      "ĠÃĩÃ¡Ã": 5562,
      "Ġrepl": 5563,
      "Ġtruc": 5564,
      "Ġdouble": 5565,
      "ĠAboriginal": 5566,
      "hist": 5567,
      "aman": 5568,
      "Ġstock": 5569,
      "Ġensuite": 5570,
      "Ġtalking": 5571,
      "Ġfully": 5572,
      "Ġhyd": 5573,
      "Ġgros": 5574,
      "Ġrepresentatives": 5575,
      "Ġtravailler": 5576,
      "stac": 5577,
      "ware": 5578,
      "Ġdifficile": 5579,
      "Ġfreed": 5580,
      "efficacitÃ©": 5581,
      "ĠMex": 5582,
      "abli": 5583,
      "ops": 5584,
      "Ġconclud": 5585,
      "Ġsurtout": 5586,
      "Ġsymp": 5587,
      "lation": 5588,
      "tise": 5589,
      "Ġcul": 5590,
      "atri": 5591,
      "hors": 5592,
      "Ġpsych": 5593,
      "ĠdÃ©pl": 5594,
      "Ġconstitution": 5595,
      "igration": 5596,
      "Ġcaract": 5597,
      "Ġ70": 5598,
      "iants": 5599,
      "jud": 5600,
      "Ġ<": 5601,
      "Ġspecies": 5602,
      "Ġissued": 5603,
      "Ġcomprend": 5604,
      "Ġdeliver": 5605,
      "ÃĪ": 5606,
      "ologiques": 5607,
      "enseignement": 5608,
      "Ġsoum": 5609,
      "ĠConstitution": 5610,
      "Ġdang": 5611,
      "urt": 5612,
      "Ġclasse": 5613,
      "Ġbasic": 5614,
      "ĠsociÃ©tÃ©s": 5615,
      "pre": 5616,
      "Ġconsul": 5617,
      "Ġretour": 5618,
      "Ġpresented": 5619,
      "dessus": 5620,
      "dis": 5621,
      "ĠProf": 5622,
      "Ġapport": 5623,
      "AB": 5624,
      "Ġouv": 5625,
      "termine": 5626,
      "Ġenregistr": 5627,
      "analyse": 5628,
      "Ġmeetings": 5629,
      "Ġfi": 5630,
      "Ġscience": 5631,
      "ĠmatÃ©riel": 5632,
      "zy": 5633,
      "clusion": 5634,
      "Ġdeme": 5635,
      "2009": 5636,
      "Ġnear": 5637,
      "Ġplanification": 5638,
      "Ġratif": 5639,
      "Ġalone": 5640,
      "Ġclassif": 5641,
      "ĠprÃ©sentÃ©": 5642,
      "ĠfranÃ§ais": 5643,
      "inn": 5644,
      "ĠmÃ©dic": 5645,
      "Ġfaible": 5646,
      "ban": 5647,
      "Ġpropres": 5648,
      "gue": 5649,
      "ĠDÃ©c": 5650,
      "arc": 5651,
      "ĠrÃ©serve": 5652,
      "Ġremain": 5653,
      "ility": 5654,
      "ĠDav": 5655,
      "abs": 5656,
      "Ġwoman": 5657,
      "imination": 5658,
      "ĠliÃ©s": 5659,
      "Ġ500": 5660,
      "Ġevents": 5661,
      "Ġstatement": 5662,
      "ĠconsÃ©quent": 5663,
      "erie": 5664,
      "Ġfire": 5665,
      "ĠRÃ©s": 5666,
      "prises": 5667,
      "Ġcontrat": 5668,
      "ĠcompÃ©tences": 5669,
      "year": 5670,
      "Ġsait": 5671,
      "Ġconsci": 5672,
      "Ġcivile": 5673,
      "46": 5674,
      "SE": 5675,
      "Ġdecl": 5676,
      "Ġregions": 5677,
      "valuer": 5678,
      "tation": 5679,
      "Ġtext": 5680,
      "EEC": 5681,
      "rÃ©s": 5682,
      "ĠreprÃ©sentant": 5683,
      "DI": 5684,
      "crip": 5685,
      "Ġmoyenne": 5686,
      "Ġdecided": 5687,
      "ĠvÃ©rification": 5688,
      "dits": 5689,
      "Ġcard": 5690,
      "active": 5691,
      "Ġpropositions": 5692,
      "ĠMrs": 5693,
      "Ġcitoyens": 5694,
      "cipl": 5695,
      "ĠFrom": 5696,
      "Ġfonctionnement": 5697,
      "Ġlangues": 5698,
      "Ġpublished": 5699,
      "Ġbless": 5700,
      "Ġeconomy": 5701,
      "aborer": 5702,
      "ĠStrateg": 5703,
      "ailed": 5704,
      "Ġsupply": 5705,
      "Ġcircum": 5706,
      "ĠfinanciÃ¨res": 5707,
      "Ġmass": 5708,
      "Ġliqu": 5709,
      "Ġopportunities": 5710,
      "pir": 5711,
      "Ġmur": 5712,
      "ĠPaul": 5713,
      "ĠWhile": 5714,
      "Ġactually": 5715,
      "Ġcreate": 5716,
      "Ġax": 5717,
      "ĠParty": 5718,
      "ĠÂ».": 5719,
      "Ġconvient": 5720,
      "arr": 5721,
      "ĠWomen": 5722,
      "ĠChair": 5723,
      "ĠsupplÃ©mentaires": 5724,
      "Ã³": 5725,
      "inte": 5726,
      "ghan": 5727,
      "Ġentreprise": 5728,
      "Ġpermettant": 5729,
      "CN": 5730,
      "ĠtÃ¢": 5731,
      "Ġcompet": 5732,
      "Ġprotoc": 5733,
      "Ġprinciples": 5734,
      "rew": 5735,
      "Ġdispos": 5736,
      "ĠindiquÃ©": 5737,
      "ĠEmploy": 5738,
      "95": 5739,
      "Ġparts": 5740,
      "ĠentraÃ®": 5741,
      "Ġinj": 5742,
      "ĠBen": 5743,
      "ĠimmÃ©di": 5744,
      "ĠthÃ©": 5745,
      "Ġintellect": 5746,
      "Ġconfiance": 5747,
      "Ġcommerci": 5748,
      "ĠMaybe": 5749,
      "ĠAND": 5750,
      "Ġlignes": 5751,
      "Ġsil": 5752,
      "Ġbodies": 5753,
      "Ġtox": 5754,
      "ĠSystem": 5755,
      "Ġmedia": 5756,
      "ĠaÃ©ri": 5757,
      "ĠMs": 5758,
      "Ġhell": 5759,
      "ĠdÃ©sign": 5760,
      "ured": 5761,
      "Ġfaisant": 5762,
      "Ġ01": 5763,
      "Ġguarante": 5764,
      "enew": 5765,
      "Ġreceive": 5766,
      "Ġsuperv": 5767,
      "Ġobs": 5768,
      "tiveness": 5769,
      "Ġinvestig": 5770,
      "ball": 5771,
      "Ġdescription": 5772,
      "ĠCep": 5773,
      "Ġenvis": 5774,
      "aie": 5775,
      "Ġtown": 5776,
      "Ġchemin": 5777,
      "entrÃ©e": 5778,
      "ĠAfrican": 5779,
      "Ġcompren": 5780,
      "Ġminute": 5781,
      "Ġsouff": 5782,
      "Ġargu": 5783,
      "Ġvictimes": 5784,
      "onie": 5785,
      "oor": 5786,
      "Ġobservations": 5787,
      "Ġgrandes": 5788,
      "Ġgrands": 5789,
      "Ġapplied": 5790,
      "Ġinstrument": 5791,
      "intention": 5792,
      "lem": 5793,
      "augh": 5794,
      "Ġ1991": 5795,
      "ĠbÃ¢": 5796,
      "iction": 5797,
      "Ġreli": 5798,
      "Ġoperation": 5799,
      "56": 5800,
      "ĠNom": 5801,
      "ĠColomb": 5802,
      "Ġabsol": 5803,
      "ĠRE": 5804,
      "ĠGen": 5805,
      "ocks": 5806,
      "ternal": 5807,
      "Ġfriends": 5808,
      "ĠÃ©missions": 5809,
      "ya": 5810,
      "Ġcut": 5811,
      "ĠprotÃ©ger": 5812,
      "Ġharmon": 5813,
      "Ġisn": 5814,
      "Ġthus": 5815,
      "legation": 5816,
      "government": 5817,
      "rehen": 5818,
      "ague": 5819,
      "Ġexchange": 5820,
      "Ġworks": 5821,
      "ĠdÃ©clarÃ©": 5822,
      "ruption": 5823,
      "atr": 5824,
      "Ġannex": 5825,
      "Ġindividuals": 5826,
      "Ġethn": 5827,
      "oon": 5828,
      "ĠLab": 5829,
      "ĠCependant": 5830,
      "77": 5831,
      "ĠNote": 5832,
      "Ġlanc": 5833,
      "Ġ34": 5834,
      "ĠTrade": 5835,
      "Ġoriginal": 5836,
      "ĠprÃ©sence": 5837,
      "Ġresponsabil": 5838,
      "Ġlate": 5839,
      "asons": 5840,
      "Ġdirecteur": 5841,
      "ĠdÃ©lai": 5842,
      "Ġreduce": 5843,
      "Ġalmost": 5844,
      "ĠCri": 5845,
      "Ġweb": 5846,
      "Ġessential": 5847,
      "Ġconnaissances": 5848,
      "UT": 5849,
      "Ġrepresentative": 5850,
      "ĠSince": 5851,
      "Ġregulations": 5852,
      "Ġconstitue": 5853,
      "ĠAccording": 5854,
      "bit": 5855,
      "Ġden": 5856,
      "Ġaudit": 5857,
      "Ġ33": 5858,
      "assurance": 5859,
      "Ġbehalf": 5860,
      "Ġtarget": 5861,
      "ae": 5862,
      "outer": 5863,
      "exper": 5864,
      "ĠprÃ©sid": 5865,
      "Ġnations": 5866,
      "007": 5867,
      "anda": 5868,
      "ino": 5869,
      "acer": 5870,
      "Ġexcell": 5871,
      "ateral": 5872,
      "Ġconclusion": 5873,
      "Ã©galitÃ©": 5874,
      "Ġpromot": 5875,
      "Ġhistory": 5876,
      "Ġfoot": 5877,
      "Ġvalid": 5878,
      "Ġvit": 5879,
      "Ġprol": 5880,
      "sement": 5881,
      "Ġtrue": 5882,
      "Ġthank": 5883,
      "Ġconnais": 5884,
      "Ġdiverses": 5885,
      "Ġlabor": 5886,
      "ison": 5887,
      "1999": 5888,
      "uth": 5889,
      "ĠprivÃ©": 5890,
      "intÃ©rieur": 5891,
      "ĠsupÃ©rie": 5892,
      "emn": 5893,
      "Ġrelatif": 5894,
      "Ġlack": 5895,
      "Ġvente": 5896,
      "idential": 5897,
      "Ġmix": 5898,
      "Ġ32": 5899,
      "Ġexpend": 5900,
      "ĠStatis": 5901,
      "Ġfair": 5902,
      "ĠDeux": 5903,
      "orge": 5904,
      "Ġoptions": 5905,
      "Ġconsommation": 5906,
      "Ġwhose": 5907,
      "ĠMark": 5908,
      "Ġstudents": 5909,
      "Ġmaterials": 5910,
      "Ġlikely": 5911,
      "Ã£": 5912,
      "onde": 5913,
      "Ã§ons": 5914,
      "ĠPubl": 5915,
      "ĠÃ©ner": 5916,
      "ĠÃ©tabli": 5917,
      "arily": 5918,
      "right": 5919,
      "ĠÃ©levÃ©": 5920,
      "sequent": 5921,
      "ĠProc": 5922,
      "ouverture": 5923,
      "Ġcreated": 5924,
      "Ġjouer": 5925,
      "Agence": 5926,
      "EUR": 5927,
      "Ġmeilleure": 5928,
      "Ġpropose": 5929,
      "ĠList": 5930,
      "ĠRed": 5931,
      "Ġdesigned": 5932,
      "98": 5933,
      "ĠÃ©vent": 5934,
      "Ġmanque": 5935,
      "Ġapproxim": 5936,
      "Ġengag": 5937,
      "90": 5938,
      "Ġplant": 5939,
      "ery": 5940,
      "Ġobstac": 5941,
      "Ġcanadiennes": 5942,
      "Ġoutil": 5943,
      "Ġlost": 5944,
      "ĠMor": 5945,
      "Ġrester": 5946,
      "partments": 5947,
      "Ġcommitment": 5948,
      "ico": 5949,
      "crit": 5950,
      "Ġx": 5951,
      "Ġmicro": 5952,
      "ĠMus": 5953,
      "Ġtarif": 5954,
      "Ġsold": 5955,
      "Ġstates": 5956,
      "Ġnews": 5957,
      "Ġrestaur": 5958,
      "ĠprioritÃ©s": 5959,
      "Ġcontinued": 5960,
      "mar": 5961,
      "nÃ©s": 5962,
      "Ġfarm": 5963,
      "ĠTR": 5964,
      "Ġeuro": 5965,
      "ĠrÃ©glementation": 5966,
      "ĠdÃ©cidÃ©": 5967,
      "ĠsuccÃ¨s": 5968,
      "ĠProtection": 5969,
      "ĠCentral": 5970,
      "iÃ©es": 5971,
      "Ġpursuant": 5972,
      "Ġrendement": 5973,
      "Ġul": 5974,
      "itter": 5975,
      "Ġanswer": 5976,
      "Th": 5977,
      "Ġ48": 5978,
      "issaire": 5979,
      "Ġfactors": 5980,
      "ĠaoÃ»t": 5981,
      "Ġrural": 5982,
      "Ġinternal": 5983,
      "Ġdiscussions": 5984,
      "ectors": 5985,
      "ĠcoÃ»t": 5986,
      "41": 5987,
      "ustries": 5988,
      "Ġspace": 5989,
      "izing": 5990,
      "illez": 5991,
      "EMENT": 5992,
      "Ġentendu": 5993,
      "ĠDepuis": 5994,
      "Ġundertak": 5995,
      "ĠChina": 5996,
      "Ġpriority": 5997,
      "cont": 5998,
      "Ġtableau": 5999,
      "Ġmorning": 6000,
      "Ġsavez": 6001,
      "Ġobjective": 6002,
      "Ġfacilities": 6003,
      "magne": 6004,
      "quÃ©es": 6005,
      "fr": 6006,
      "Ġpain": 6007,
      "Ġconservation": 6008,
      "Ġlocation": 6009,
      "Ġjudici": 6010,
      "itures": 6011,
      "Ġmodification": 6012,
      "Ġpilot": 6013,
      "Ġbul": 6014,
      "ĠconfÃ©rence": 6015,
      "Ġgave": 6016,
      "Ġlower": 6017,
      "ĠliÃ©es": 6018,
      "Ġeffort": 6019,
      "Ġpubliques": 6020,
      "ĠInstitute": 6021,
      "ICE": 6022,
      "ynam": 6023,
      "Ġvalues": 6024,
      "Ġprepared": 6025,
      "Ġmissions": 6026,
      "Ġpaper": 6027,
      "Ġge": 6028,
      "ĠAuthor": 6029,
      "Ġcriteria": 6030,
      "PR": 6031,
      "Ġquant": 6032,
      "ĠTous": 6033,
      "ĠOut": 6034,
      "Ġforms": 6035,
      "Ġinfrastructure": 6036,
      "tÃ©s": 6037,
      "anks": 6038,
      "ĠOver": 6039,
      "selves": 6040,
      "Ġstructures": 6041,
      "novation": 6042,
      "Ġindustrial": 6043,
      "itime": 6044,
      "Ġfournisse": 6045,
      "Ġsuccessful": 6046,
      "ĠGermany": 6047,
      "Ġquantit": 6048,
      "phas": 6049,
      "Ġthemselves": 6050,
      "ĠutilisÃ©s": 6051,
      "Ġrequested": 6052,
      "Ġyourself": 6053,
      "Ã©quipe": 6054,
      "Ġprofessional": 6055,
      "Ġvide": 6056,
      "ĠMac": 6057,
      "Ġwatch": 6058,
      "Ãĳ": 6059,
      "Ã©th": 6060,
      "urch": 6061,
      "urement": 6062,
      "Ġcroy": 6063,
      "Ã©ti": 6064,
      "ĠAud": 6065,
      "ĠNet": 6066,
      "ouvrir": 6067,
      "Ġproposals": 6068,
      "Ġmanifest": 6069,
      "abilities": 6070,
      "ged": 6071,
      "oign": 6072,
      "âĢĶ": 6073,
      "enant": 6074,
      "onti": 6075,
      "arning": 6076,
      "acqu": 6077,
      "ĠHouse": 6078,
      "itage": 6079,
      "anna": 6080,
      "Ontario": 6081,
      "Ġ]": 6082,
      "Ġready": 6083,
      "Ġdrink": 6084,
      "uration": 6085,
      "ĠAng": 6086,
      "ĠQuebec": 6087,
      "Ġmeilleur": 6088,
      "Ġcredit": 6089,
      "raq": 6090,
      "Ġadmis": 6091,
      "ĠJean": 6092,
      "gar": 6093,
      "Ġsolid": 6094,
      "ĠFurther": 6095,
      "Ġparle": 6096,
      "Ġmedical": 6097,
      "Ġlaisser": 6098,
      "Ġinvestisse": 6099,
      "Ġattack": 6100,
      "Ġindependent": 6101,
      "ĠsecrÃ©t": 6102,
      "Ġmilli": 6103,
      "Ġlongtemps": 6104,
      "oncÃ©": 6105,
      "Ã¦": 6106,
      "Ġchiff": 6107,
      "97": 6108,
      "ĠUnder": 6109,
      "ocratic": 6110,
      "uilding": 6111,
      "Ġconcept": 6112,
      "ĠBul": 6113,
      "ift": 6114,
      "ritannique": 6115,
      "limin": 6116,
      "ĠnÃ©": 6117,
      "etÃ©": 6118,
      "Ġchim": 6119,
      "avait": 6120,
      "Ġconcurrence": 6121,
      "Ġpeur": 6122,
      "Ġvont": 6123,
      "Ġconflict": 6124,
      "ĠToronto": 6125,
      "rehensive": 6126,
      "Ġnice": 6127,
      "ifique": 6128,
      "Ġcomes": 6129,
      "ellig": 6130,
      "Ġhumaines": 6131,
      "Ġprices": 6132,
      "68": 6133,
      "ĠrÃ©alisation": 6134,
      "aria": 6135,
      "Ġsaying": 6136,
      "Ġstated": 6137,
      "ĠJournal": 6138,
      "Ġoverall": 6139,
      "Ġchacun": 6140,
      "ĠVi": 6141,
      "obal": 6142,
      "Ġexpect": 6143,
      "Ġcompetition": 6144,
      "ĠDavid": 6145,
      "DC": 6146,
      "onner": 6147,
      "Ġajout": 6148,
      "Ġattach": 6149,
      "Ġapproche": 6150,
      "ĠPan": 6151,
      "Ġdix": 6152,
      "Ġrelatifs": 6153,
      "Ġmatters": 6154,
      "ĠResp": 6155,
      "Ġexact": 6156,
      "iving": 6157,
      "ĠMinistry": 6158,
      "42": 6159,
      "Ã©rable": 6160,
      "ple": 6161,
      "Ġarmes": 6162,
      "Ġconcerns": 6163,
      "leep": 6164,
      "Ġresponsables": 6165,
      "ĠbÃ©nÃ©fici": 6166,
      "Ġclos": 6167,
      "Ġjuris": 6168,
      "Ġimportants": 6169,
      "Ġrich": 6170,
      "Ġtrust": 6171,
      "ĠFR": 6172,
      "EX": 6173,
      "Ġnord": 6174,
      "assi": 6175,
      "Ġunderstanding": 6176,
      "Ġenjoy": 6177,
      "ĠAuc": 6178,
      "adoption": 6179,
      "Ġupd": 6180,
      "occasion": 6181,
      "Ġprinciple": 6182,
      "lectronic": 6183,
      "Re": 6184,
      "Ġspirit": 6185,
      "ĠcatÃ©gorie": 6186,
      "exc": 6187,
      "obil": 6188,
      "forcement": 6189,
      "Ġkilled": 6190,
      "tivity": 6191,
      "Ġvoulais": 6192,
      "Ġtourn": 6193,
      "Ġoil": 6194,
      "Ġense": 6195,
      ")?": 6196,
      "Ġcontribuer": 6197,
      "Ġfinancier": 6198,
      "Ġoccasion": 6199,
      "Ġcentrale": 6200,
      "ĠAsi": 6201,
      "ĠForum": 6202,
      "Ġcriminal": 6203,
      "Ġsearch": 6204,
      "ĠLib": 6205,
      "ĠHIV": 6206,
      "ju": 6207,
      "Ġtraffic": 6208,
      "ĠParti": 6209,
      "Ġnavig": 6210,
      "Ã©tr": 6211,
      "itÃ©e": 6212,
      "Ġ75": 6213,
      "den": 6214,
      "Ġvision": 6215,
      "oine": 6216,
      "iments": 6217,
      "Ġgender": 6218,
      "Ġvac": 6219,
      "ĠFederal": 6220,
      "Ġstrengthen": 6221,
      "Ġinitial": 6222,
      "Ġallez": 6223,
      "ensus": 6224,
      "ĠtroisiÃ¨me": 6225,
      "know": 6226,
      "Ġoption": 6227,
      "ĠcrÃ©dit": 6228,
      "ĠprÃ©vu": 6229,
      "antill": 6230,
      "riel": 6231,
      "oba": 6232,
      "ĠStud": 6233,
      "Ġuh": 6234,
      "Ġthroughout": 6235,
      "Ġpoor": 6236,
      "fl": 6237,
      "Ġprocesses": 6238,
      "Ġconducted": 6239,
      "yg": 6240,
      "Ġquelle": 6241,
      "Ġmusic": 6242,
      "Ġexpressed": 6243,
      "ĠRight": 6244,
      "ĠJapan": 6245,
      "rance": 6246,
      "Ġloin": 6247,
      "Ġknew": 6248,
      "ĠEs": 6249,
      "Ġestablishment": 6250,
      "Ġguide": 6251,
      "Ġlettre": 6252,
      "Ġamended": 6253,
      "61": 6254,
      "cr": 6255,
      "Ġbed": 6256,
      "Ġrent": 6257,
      "tructions": 6258,
      "going": 6259,
      "ĠprÃ©vues": 6260,
      "Ġchallenges": 6261,
      "ĠForce": 6262,
      "Ġtakes": 6263,
      "Ġexamen": 6264,
      "Ã¼": 6265,
      "eci": 6266,
      "ĠrÃ©gional": 6267,
      "Ġcycle": 6268,
      "Ġadoption": 6269,
      "Ġletter": 6270,
      "Ġcircumstances": 6271,
      "ĠCoop": 6272,
      "Ġrapidement": 6273,
      "iam": 6274,
      "Ġcomptes": 6275,
      "Ġavanc": 6276,
      "ĠSecretariat": 6277,
      "Ġboard": 6278,
      "Ġmaintien": 6279,
      "hÃ©sion": 6280,
      "ĠRoyaume": 6281,
      "ancial": 6282,
      "ĠLE": 6283,
      "Ġextr": 6284,
      "ĠUh": 6285,
      "itiÃ©": 6286,
      "export": 6287,
      "Ġmode": 6288,
      "ulÃ©": 6289,
      "Ġinterests": 6290,
      "ĠTim": 6291,
      "ĠdÃ©ta": 6292,
      "eler": 6293,
      "ĠSantÃ©": 6294,
      "ĠLux": 6295,
      "ĠOper": 6296,
      "oyer": 6297,
      "Ġraisons": 6298,
      "100": 6299,
      "UM": 6300,
      "Ġsubstance": 6301,
      "Ġmultil": 6302,
      "expÃ©rience": 6303,
      "ĠcaractÃ¨re": 6304,
      "Ġlaisse": 6305,
      "ĠVotre": 6306,
      "eless": 6307,
      "Ġsignif": 6308,
      "Ġlaws": 6309,
      "ĠKingdom": 6310,
      "ĠpauvretÃ©": 6311,
      "Ġsan": 6312,
      "iency": 6313,
      "Ġdraw": 6314,
      "Ġmouve": 6315,
      "Ã¨que": 6316,
      "Ġadjust": 6317,
      "book": 6318,
      "Ġcovered": 6319,
      "ĠJack": 6320,
      "Ġcontained": 6321,
      "ĠmÃ©dias": 6322,
      "Ġanglais": 6323,
      "ĠMart": 6324,
      "Ġ55": 6325,
      "ĠprÃ©voit": 6326,
      "Ġbit": 6327,
      "ĠInf": 6328,
      "Ġdefined": 6329,
      "Ġinstallations": 6330,
      "aider": 6331,
      "Ġchapitre": 6332,
      "TER": 6333,
      "ĠintÃ©rÃªts": 6334,
      "Ġfail": 6335,
      "Ġquanti": 6336,
      "Ġwasn": 6337,
      "Åĵur": 6338,
      "Ġterres": 6339,
      "Ġexamin": 6340,
      "Ġcoordin": 6341,
      "ĠElles": 6342,
      "Ġreduction": 6343,
      "eks": 6344,
      "Ġpun": 6345,
      "anche": 6346,
      "Ġdetermine": 6347,
      "Ġflex": 6348,
      "ĠNotre": 6349,
      "uct": 6350,
      "ĠIS": 6351,
      "Ġexperien": 6352,
      "ĠApplication": 6353,
      "Ġrule": 6354,
      "Ġ47": 6355,
      "Ġcompleted": 6356,
      "Ġvillage": 6357,
      "ĠGreat": 6358,
      "ĠstratÃ©gique": 6359,
      "ĠmÃ©thode": 6360,
      "Ġfilles": 6361,
      "encontre": 6362,
      "Ġstep": 6363,
      "Ġcompt": 6364,
      "Ġterrain": 6365,
      "atoires": 6366,
      "Ġjeu": 6367,
      "Ġexprim": 6368,
      "Ġpurch": 6369,
      "ores": 6370,
      "enquÃªte": 6371,
      "ĠespÃ¨ces": 6372,
      "Ġrelativement": 6373,
      "Ġbalance": 6374,
      "Ġpeine": 6375,
      "Ġsoft": 6376,
      "urgence": 6377,
      "Ġpuisse": 6378,
      "Ġrenforcement": 6379,
      "enfant": 6380,
      "cus": 6381,
      "96": 6382,
      "Ã©ral": 6383,
      "ĠÃ©tude": 6384,
      "Ġship": 6385,
      "Ġartis": 6386,
      "ĠProject": 6387,
      "Ġremerci": 6388,
      "Ġreasons": 6389,
      "Ġcollection": 6390,
      "ranch": 6391,
      "Ġrenouvel": 6392,
      "ĠSaf": 6393,
      "Ġart": 6394,
      "tiful": 6395,
      "mun": 6396,
      "Ġmg": 6397,
      "Ġbank": 6398,
      "Ġgame": 6399,
      "Ġmaladie": 6400,
      "Ġbaby": 6401,
      "cepti": 6402,
      "ĠÃ©vÃ©": 6403,
      "Ġapproval": 6404,
      "histoire": 6405,
      "ka": 6406,
      "Ġplais": 6407,
      "ĠÃ©lectronique": 6408,
      "net": 6409,
      "Ġaccident": 6410,
      "Ġhors": 6411,
      "Ġcontain": 6412,
      "Ġcoh": 6413,
      "Ġsuivre": 6414,
      "ded": 6415,
      "wise": 6416,
      "Ġvacc": 6417,
      "agent": 6418,
      "Ġinqu": 6419,
      "ouss": 6420,
      "Ġstage": 6421,
      "angu": 6422,
      "coute": 6423,
      "Ġconven": 6424,
      "Ġwebsite": 6425,
      "Ġautant": 6426,
      "ĠRecomm": 6427,
      "mosph": 6428,
      "Ġwife": 6429,
      "Ġnotice": 6430,
      "Ġchem": 6431,
      "Ġchercher": 6432,
      "porate": 6433,
      "ĠdÃ©lÃ©gation": 6434,
      "43": 6435,
      "Ġdirectr": 6436,
      "Ġclearly": 6437,
      "vest": 6438,
      "isent": 6439,
      "ancing": 6440,
      "ĠdÃ©finition": 6441,
      "ĠDÃ©s": 6442,
      "rig": 6443,
      "agraph": 6444,
      "rÃ©ci": 6445,
      "Ġrelationship": 6446,
      "Ġcontenu": 6447,
      "Ġvoudrais": 6448,
      "ples": 6449,
      "Ġcaus": 6450,
      "askat": 6451,
      "erais": 6452,
      "Ġdiver": 6453,
      "Ġidentify": 6454,
      "itoba": 6455,
      "Ġlocated": 6456,
      "Ġrecherches": 6457,
      "Ġdossier": 6458,
      "Ġarrangements": 6459,
      "Ġdig": 6460,
      "Ġmethods": 6461,
      "iddle": 6462,
      "CO": 6463,
      "Ġpostes": 6464,
      "Ġavantages": 6465,
      "mark": 6466,
      "Ġled": 6467,
      "Ġquick": 6468,
      "Ġarrive": 6469,
      "pos": 6470,
      "ĠÃ©valuation": 6471,
      "Ġcanadiens": 6472,
      "Ġstrategic": 6473,
      "umer": 6474,
      "Ã©taires": 6475,
      "Ġlesquelles": 6476,
      "ommunications": 6477,
      "ĠSk": 6478,
      "ĠdÃ©taill": 6479,
      "Ġtoutefois": 6480,
      "Ġtests": 6481,
      "erson": 6482,
      "ĠHel": 6483,
      "umes": 6484,
      "Ġbillion": 6485,
      "ĠDuring": 6486,
      "Ġadded": 6487,
      "Ġsubstanti": 6488,
      "Ġdelivery": 6489,
      "Ġpositions": 6490,
      "Ġkid": 6491,
      "Ġprofit": 6492,
      "Ġgovernments": 6493,
      "cal": 6494,
      "irth": 6495,
      "Ġbure": 6496,
      "ĠDonc": 6497,
      "Ġinterven": 6498,
      "Ġactual": 6499,
      "Ã©lÃ©": 6500,
      "Ġdetermined": 6501,
      "ĠArab": 6502,
      "riers": 6503,
      "Ġmaintenance": 6504,
      "objectif": 6505,
      "ĠMÃªme": 6506,
      "Ã©chelle": 6507,
      "ĠrÃ©unions": 6508,
      "icaments": 6509,
      "cos": 6510,
      "utÃ©": 6511,
      "atement": 6512,
      "Ġactuelle": 6513,
      "ello": 6514,
      "Ġdistance": 6515,
      "Ġclean": 6516,
      "Ġindicated": 6517,
      "Ġeasy": 6518,
      "ĠLorsque": 6519,
      "ĠOk": 6520,
      "Ġsalle": 6521,
      "Ġfaciliter": 6522,
      "sec": 6523,
      "Ġpriorities": 6524,
      "Ġlocaux": 6525,
      "Ġsched": 6526,
      "Ġrapide": 6527,
      "ĠPeut": 6528,
      "EA": 6529,
      "quet": 6530,
      "ressive": 6531,
      "Ã©quip": 6532,
      "ĠcollectivitÃ©s": 6533,
      "holders": 6534,
      "].": 6535,
      "ĠLond": 6536,
      "Ġpresque": 6537,
      "istrement": 6538,
      "ĠsÃ©par": 6539,
      "Ġsensibil": 6540,
      "Add": 6541,
      "ĠTV": 6542,
      "Ġstake": 6543,
      "Ġpayment": 6544,
      "governmental": 6545,
      "ĠfÃ©l": 6546,
      "ĠCent": 6547,
      "ibility": 6548,
      "Ġtas": 6549,
      "Ã¨les": 6550,
      "Ġpharm": 6551,
      "Ġcancer": 6552,
      "ĠMill": 6553,
      "partement": 6554,
      "Ġnuclear": 6555,
      "Ġhospital": 6556,
      "ĠFl": 6557,
      "Ġbeginning": 6558,
      "mail": 6559,
      "Ġways": 6560,
      "Ġrespective": 6561,
      "ĠCB": 6562,
      "ĠTre": 6563,
      "Ġemphas": 6564,
      "Ġextent": 6565,
      "avenir": 6566,
      "Ġprovis": 6567,
      "itarian": 6568,
      "Ġyouth": 6569,
      "Uni": 6570,
      "Ġfollows": 6571,
      "Ġoccur": 6572,
      "ny": 6573,
      "ĠHome": 6574,
      "appr": 6575,
      "Ġconsistent": 6576,
      "ĠrÃ©d": 6577,
      "Ġintended": 6578,
      "ĠmatiÃ¨res": 6579,
      "ĠDirection": 6580,
      "Is": 6581,
      "ray": 6582,
      "Ġprot": 6583,
      "alls": 6584,
      "Ġtenue": 6585,
      "Ġmarkets": 6586,
      "ĠChine": 6587,
      "Ġsortir": 6588,
      "ĠpossibilitÃ©s": 6589,
      "ĠSalut": 6590,
      "Ġcreat": 6591,
      "Ã¨tes": 6592,
      "Ã§u": 6593,
      "âĢĿ.": 6594,
      "exist": 6595,
      "Ġfaits": 6596,
      "Ġlocales": 6597,
      "Ġsemaines": 6598,
      "Ġwritten": 6599,
      "ĠExcuse": 6600,
      "âĢĿ,": 6601,
      "Ġmajority": 6602,
      "Ġdoute": 6603,
      "ena": 6604,
      "Ġcommitted": 6605,
      "Ġformes": 6606,
      "Ġstri": 6607,
      "Ġclairement": 6608,
      "lÃł": 6609,
      "Ġyeux": 6610,
      "verty": 6611,
      "ĠEng": 6612,
      "rief": 6613,
      "Ġdocumentation": 6614,
      "Ġwond": 6615,
      "ĠplaÃ®t": 6616,
      "ĠQues": 6617,
      "54": 6618,
      "ĠEast": 6619,
      "Ġsud": 6620,
      "Ġdirectives": 6621,
      "ĠgÃ©nÃ©ralement": 6622,
      "ael": 6623,
      "ĠEducation": 6624,
      "ĠproposÃ©": 6625,
      "Ġobjectif": 6626,
      "Ġdescribed": 6627,
      "Ġwants": 6628,
      "Ġweeks": 6629,
      "Ġpoverty": 6630,
      "Ġeaux": 6631,
      "Ġaccords": 6632,
      "ral": 6633,
      "Ġreject": 6634,
      "Ġwaste": 6635,
      "PA": 6636,
      "ĠAinsi": 6637,
      "Ġtransform": 6638,
      "racy": 6639,
      "ĠOuais": 6640,
      "Ġap": 6641,
      "Ġsize": 6642,
      "areness": 6643,
      "Ġnorth": 6644,
      "ĠVol": 6645,
      "ĠNumber": 6646,
      "Afrique": 6647,
      "Ġelements": 6648,
      "Ġ39": 6649,
      "appl": 6650,
      "Ġequal": 6651,
      "Ġpaiement": 6652,
      "oz": 6653,
      "Ġdevez": 6654,
      "Ġmanner": 6655,
      "ĠProduc": 6656,
      "Ġtuer": 6657,
      "ĠvÃ©hicules": 6658,
      "LL": 6659,
      "rication": 6660,
      "overy": 6661,
      "auche": 6662,
      "Ġamis": 6663,
      "ĠcommunautÃ©s": 6664,
      "ĠColumb": 6665,
      "ĠmajoritÃ©": 6666,
      "ĠLuxem": 6667,
      "Ġtransfert": 6668,
      "ĠFish": 6669,
      "isition": 6670,
      "Ġadequ": 6671,
      "ype": 6672,
      "Ġdynam": 6673,
      "Ġporter": 6674,
      "Ġmarque": 6675,
      "ĠReview": 6676,
      "Ġcarte": 6677,
      "ĠProtocol": 6678,
      "Ġoperating": 6679,
      "Ġhar": 6680,
      "Ġgars": 6681,
      "Ġcomprehensive": 6682,
      "Ġcommence": 6683,
      "âĢĵ": 6684,
      "Ġpeuple": 6685,
      "ground": 6686,
      "Ġengine": 6687,
      "Ġrenew": 6688,
      "Ġcris": 6689,
      "raine": 6690,
      "oure": 6691,
      "Ġimpossible": 6692,
      "ĠsÃ©ance": 6693,
      "It": 6694,
      "Ġbreve": 6695,
      "read": 6696,
      "Ġsuscepti": 6697,
      "ĠjournÃ©e": 6698,
      ".-": 6699,
      "ĠAD": 6700,
      "owers": 6701,
      "aiti": 6702,
      "Ġsat": 6703,
      "tty": 6704,
      "Ġfreedom": 6705,
      "Ġdangere": 6706,
      "62": 6707,
      "ĠNouvel": 6708,
      "Ġhands": 6709,
      "ghanistan": 6710,
      "ring": 6711,
      "ĠCAN": 6712,
      "Ġvise": 6713,
      "ĠAlthough": 6714,
      "Ġpatient": 6715,
      "ĠSen": 6716,
      "Ġweap": 6717,
      "Ġservir": 6718,
      "Ġscol": 6719,
      "ĠBonjour": 6720,
      "ĠindÃ©pend": 6721,
      "Ġphysical": 6722,
      "fort": 6723,
      "ĠCet": 6724,
      "Ġentitled": 6725,
      "Ġdot": 6726,
      "Ġcir": 6727,
      "othing": 6728,
      "Ã¥": 6729,
      "Ġbout": 6730,
      "rad": 6731,
      "Ġcompliance": 6732,
      "eurs": 6733,
      "Ã¶": 6734,
      "Ġlaunch": 6735,
      "Ġconsolid": 6736,
      "Ġmandate": 6737,
      "Ġsectors": 6738,
      "Ġcontribute": 6739,
      "ĠchargÃ©": 6740,
      "load": 6741,
      "Ġnotif": 6742,
      "Ġpresse": 6743,
      "Ġbelie": 6744,
      "Ġcommunautaires": 6745,
      "vant": 6746,
      "abin": 6747,
      "ĠdÃ©cl": 6748,
      "Ġrevenus": 6749,
      "ĠamÃ©lior": 6750,
      "ĠBanque": 6751,
      "Ġmyself": 6752,
      "Ġreduc": 6753,
      "ĠBur": 6754,
      "Ġrequires": 6755,
      "ĠministÃ¨res": 6756,
      "ircraft": 6757,
      "Ġmas": 6758,
      "Ġviens": 6759,
      "Ġsufficient": 6760,
      "ĠresponsabilitÃ©s": 6761,
      "Ã¨rement": 6762,
      "vin": 6763,
      "Ġerre": 6764,
      "ucking": 6765,
      "cluding": 6766,
      "Ġrejet": 6767,
      "Ġchambre": 6768,
      "augment": 6769,
      "Ġauxqu": 6770,
      "Ġregular": 6771,
      "Ġeduc": 6772,
      "ĠÃ©valu": 6773,
      "Ġpermit": 6774,
      "Ġcrimes": 6775,
      "Ġfronti": 6776,
      "Ġanalyse": 6777,
      "Ġang": 6778,
      "andis": 6779,
      "Ġ300": 6780,
      "Ġstarted": 6781,
      "Ġevalu": 6782,
      "ĠHave": 6783,
      "amental": 6784,
      "Ġpetites": 6785,
      "Ġprobably": 6786,
      "Ġpetits": 6787,
      "orient": 6788,
      "ommet": 6789,
      "ĠEnfin": 6790,
      "install": 6791,
      "istic": 6792,
      "ĠreprÃ©sente": 6793,
      "Ġcontro": 6794,
      "ĠParce": 6795,
      "Ġdebate": 6796,
      "80": 6797,
      "Canad": 6798,
      "Ġquite": 6799,
      "ĠIV": 6800,
      "ĠMil": 6801,
      "Ġavoid": 6802,
      "Ġprimary": 6803,
      "Ġgarantir": 6804,
      "ym": 6805,
      "Ġobjet": 6806,
      "Ã¢ge": 6807,
      "Ġcompeti": 6808,
      "incip": 6809,
      "Ġnutri": 6810,
      "elt": 6811,
      "rif": 6812,
      "Ġtransmission": 6813,
      "ĠHead": 6814,
      "Ġsuivante": 6815,
      "ike": 6816,
      "isms": 6817,
      "Ġseries": 6818,
      "bas": 6819,
      "amÃ©liorer": 6820,
      "Ġoptim": 6821,
      "Ġrefus": 6822,
      "Ġlives": 6823,
      "ĠEnvironmental": 6824,
      "na": 6825,
      "put": 6826,
      "Ġparam": 6827,
      "Ġserve": 6828,
      "ĠsupÃ©rieur": 6829,
      "Pro": 6830,
      "ĠcrÃ©Ã©": 6831,
      "Ġlesquels": 6832,
      "ĠEh": 6833,
      "75": 6834,
      "mÃ©di": 6835,
      "Ġdeg": 6836,
      "Ġprevention": 6837,
      "Ġ85": 6838,
      "SS": 6839,
      "ĠST": 6840,
      "Ġmaybe": 6841,
      "ĠÃ©tablissements": 6842,
      "investissement": 6843,
      "Ġamendments": 6844,
      "trÃ©al": 6845,
      "Ġbeautiful": 6846,
      "Ġintit": 6847,
      "Ġmilitaire": 6848,
      "Ġconcentration": 6849,
      "oved": 6850,
      "Ġdistin": 6851,
      "Ġsatisfaction": 6852,
      "Ġenable": 6853,
      "amples": 6854,
      "ĠAlberta": 6855,
      "Ġaddressed": 6856,
      "Wh": 6857,
      "gyp": 6858,
      "ĠSim": 6859,
      "Ġexceed": 6860,
      "ĠlumiÃ¨re": 6861,
      "ĠconnaÃ®tre": 6862,
      "tims": 6863,
      "Ġplac": 6864,
      "ĠLuxembourg": 6865,
      "Ġaffec": 6866,
      "ĠGlobal": 6867,
      "Ġinfluence": 6868,
      "ĠMaintenant": 6869,
      "Ġdisposi": 6870,
      "Ġthinking": 6871,
      "Ġdoctor": 6872,
      "Ġsense": 6873,
      "Ġextre": 6874,
      "ĠrÃ©fug": 6875,
      "ĠMaj": 6876,
      "Ġparent": 6877,
      "Ġdispl": 6878,
      "Ġdispose": 6879,
      "Ġcollabor": 6880,
      "Ġagricultural": 6881,
      "Ġquo": 6882,
      "Ġappeal": 6883,
      "Ġcommittee": 6884,
      "2010": 6885,
      "ĠRussie": 6886,
      "ĠFinancial": 6887,
      "Ġconstat": 6888,
      "Ġterrorisme": 6889,
      "Ġcorrect": 6890,
      "ĠDel": 6891,
      "ĠRet": 6892,
      "reci": 6893,
      "ribution": 6894,
      "Ġeveryone": 6895,
      "Ġremains": 6896,
      "Ã´tel": 6897,
      "Ġstatistiques": 6898,
      "ivalent": 6899,
      "ilt": 6900,
      "Ġcrise": 6901,
      "Ġoffers": 6902,
      "Ġfaud": 6903,
      "ĠprÃ©cis": 6904,
      "ĠmÃªmes": 6905,
      "ĠCC": 6906,
      "ĠSaskat": 6907,
      "ĠLord": 6908,
      "adap": 6909,
      "ĠManitoba": 6910,
      "ĠspÃ©cifiques": 6911,
      "AmÃ©rique": 6912,
      "tiles": 6913,
      "ĠPAR": 6914,
      "ĠnÃ©gociations": 6915,
      "ĠArch": 6916,
      "amÃ©lioration": 6917,
      "ument": 6918,
      "oral": 6919,
      "Ġfit": 6920,
      "Ġestime": 6921,
      "Ġhandic": 6922,
      "ibilitÃ©": 6923,
      "avi": 6924,
      "ĠdÃ©n": 6925,
      "ĠmÃ©canismes": 6926,
      "Ġenfant": 6927,
      "2011": 6928,
      "Ġprovenant": 6929,
      "td": 6930,
      "enreg": 6931,
      "ĠBas": 6932,
      "Ġrequests": 6933,
      "Ġmatin": 6934,
      "Ġaffected": 6935,
      "ĠRegional": 6936,
      "Ġfamilies": 6937,
      "Ġwin": 6938,
      "ĠBer": 6939,
      "Ġassur": 6940,
      "ĠtÃ©lÃ©c": 6941,
      "Ġguidelines": 6942,
      "Ġmatch": 6943,
      "visory": 6944,
      "Ġdirige": 6945,
      "mill": 6946,
      "Ġstim": 6947,
      "Ġvia": 6948,
      "IDS": 6949,
      "Ġtransports": 6950,
      "ĠeuropÃ©ennes": 6951,
      "Ġgam": 6952,
      "Ġgone": 6953,
      "igible": 6954,
      "Ġproduced": 6955,
      "ĠFranc": 6956,
      "ĠPeople": 6957,
      "ĠSecrÃ©tariat": 6958,
      "Ġdepartments": 6959,
      "Ġassign": 6960,
      "yond": 6961,
      "Ġfamili": 6962,
      "ĠstratÃ©gies": 6963,
      "arme": 6964,
      "ĠBusiness": 6965,
      "Ġami": 6966,
      "Ġsoumis": 6967,
      "Ġobligation": 6968,
      "Ġclaims": 6969,
      "ĠDU": 6970,
      "ulaires": 6971,
      "ĠdÃ©pos": 6972,
      "Ġtaille": 6973,
      "Ġfro": 6974,
      "comes": 6975,
      "Ġrecommended": 6976,
      "Ġcompter": 6977,
      "Ġconseils": 6978,
      "vision": 6979,
      "Ġbur": 6980,
      "Ġnation": 6981,
      "asp": 6982,
      "Ġconsent": 6983,
      "Ġaugmentation": 6984,
      "Ġdisponible": 6985,
      "intÃ©gration": 6986,
      "ĠColumbia": 6987,
      "ĠChris": 6988,
      "Ġdevait": 6989,
      "Ġpages": 6990,
      "roÃ®tre": 6991,
      "Ġhyp": 6992,
      "Ġsole": 6993,
      "Ġdose": 6994,
      "ĠÃ©labor": 6995,
      "Ġperspective": 6996,
      "Ã¨nes": 6997,
      "ĠFore": 6998,
      "ĠVIH": 6999,
      "Ġdistr": 7000,
      "Ġcopy": 7001,
      "ĠLike": 7002,
      "Ġgenerally": 7003,
      "Ġchoice": 7004,
      "pendant": 7005,
      "chewan": 7006,
      "ariff": 7007,
      "ĠpubliÃ©": 7008,
      "Ġfamilles": 7009,
      "Ġsubsection": 7010,
      "Ġmagn": 7011,
      "Ġconception": 7012,
      "Ġparlement": 7013,
      "Ġleadership": 7014,
      "rons": 7015,
      "Ġunit": 7016,
      "lying": 7017,
      "Ġinterne": 7018,
      "ĠmÃ©dicaments": 7019,
      "ĠprÃªt": 7020,
      "Ġhous": 7021,
      "Ġunif": 7022,
      "Ġhumains": 7023,
      "Ġmaladies": 7024,
      "],": 7025,
      "erez": 7026,
      "Ġadult": 7027,
      "Ġability": 7028,
      "Ġsociales": 7029,
      "Ġoperational": 7030,
      "Ġrig": 7031,
      "Ġpourra": 7032,
      "Ġconnaissance": 7033,
      "Ġphysique": 7034,
      "ij": 7035,
      "uan": 7036,
      "ĠRiver": 7037,
      "ierre": 7038,
      "Ġprec": 7039,
      "Les": 7040,
      "ugal": 7041,
      "Ġimage": 7042,
      "Ġretra": 7043,
      "Ġappoint": 7044,
      "Ġmontre": 7045,
      "Ġ==": 7046,
      "alinÃ©a": 7047,
      "ĠÂ´": 7048,
      "ĠExecutive": 7049,
      "ĠContract": 7050,
      "bal": 7051,
      "Ġcomplain": 7052,
      "65": 7053,
      "ĠDad": 7054,
      "ĠEntre": 7055,
      "GR": 7056,
      "ĠprÃ©sentation": 7057,
      "Ġnam": 7058,
      "Ġhaute": 7059,
      "ĠdÃ©g": 7060,
      "Ġneg": 7061,
      "Ġcreation": 7062,
      "Ġgirls": 7063,
      "html": 7064,
      "Ġsouth": 7065,
      "ĠDou": 7066,
      "ĠJO": 7067,
      "quence": 7068,
      "Ġcool": 7069,
      "Ġpouvons": 7070,
      "Ġallowed": 7071,
      "Ġskills": 7072,
      "ĠSan": 7073,
      "ĠStand": 7074,
      "Ġwouldn": 7075,
      "Ġimportantes": 7076,
      "aliment": 7077,
      "uler": 7078,
      "order": 7079,
      "Ġadress": 7080,
      "Ġjuge": 7081,
      "Ġbehind": 7082,
      "Ġconduct": 7083,
      "Ġdie": 7084,
      "Ġweight": 7085,
      "Ġimplemented": 7086,
      "Ġclimate": 7087,
      "ĠtÃ©lÃ©phone": 7088,
      "Ou": 7089,
      "Ġliens": 7090,
      "Ġnour": 7091,
      "ĠCity": 7092,
      "Ġvite": 7093,
      "ĠTake": 7094,
      "Ġenqu": 7095,
      "affaires": 7096,
      "Ġexpli": 7097,
      "Ġcirculation": 7098,
      "ĠLat": 7099,
      "ĠDef": 7100,
      "Ġannuel": 7101,
      "ĠrÃ©sultat": 7102,
      "Ġapplicant": 7103,
      "Ġcouple": 7104,
      "rich": 7105,
      "Ġnor": 7106,
      "ĠProm": 7107,
      "Ġparl": 7108,
      "comm": 7109,
      "Ġstrategies": 7110,
      "Ġuniquement": 7111,
      "Ġaud": 7112,
      "Ġfiscal": 7113,
      "ĠLim": 7114,
      "Ġparfait": 7115,
      "oto": 7116,
      "94": 7117,
      "Ġsupported": 7118,
      "Ġfavour": 7119,
      "Ġpath": 7120,
      "icate": 7121,
      "ĠIraq": 7122,
      "Ġcependant": 7123,
      "assistance": 7124,
      "ĠAR": 7125,
      "Ġplaces": 7126,
      "Ġbecame": 7127,
      "Ġcandidats": 7128,
      "Ġmovement": 7129,
      "Ġkil": 7130,
      "met": 7131,
      "Ġentry": 7132,
      "ĠRapporteur": 7133,
      "Ġprogramming": 7134,
      "Ã©rant": 7135,
      "Ġinterview": 7136,
      "Ġbecom": 7137,
      "iliation": 7138,
      "Ġtools": 7139,
      "ĠSor": 7140,
      "Ã¨se": 7141,
      "Ġshown": 7142,
      "Ġrefuge": 7143,
      "Ġaircraft": 7144,
      "Ġfollowed": 7145,
      "Ġanimaux": 7146,
      "anim": 7147,
      "ourir": 7148,
      "pper": 7149,
      "Ġfeed": 7150,
      "Ġshows": 7151,
      "Ġelect": 7152,
      "ĠCond": 7153,
      "ĠdÃ©part": 7154,
      "Ġformat": 7155,
      "Ġsteps": 7156,
      "ĠempÃª": 7157,
      "ĠBi": 7158,
      "Ġanyone": 7159,
      "Ġbra": 7160,
      "ador": 7161,
      "Ġgrave": 7162,
      "Ġmerc": 7163,
      "Ġwanna": 7164,
      "asc": 7165,
      "ĠtÃ©lÃ©v": 7166,
      "Ġwalk": 7167,
      "ĠPage": 7168,
      "Ġperdu": 7169,
      "Ġfonctionnaires": 7170,
      "Ġcollective": 7171,
      "ĠTO": 7172,
      "Ġappare": 7173,
      "Ã©cole": 7174,
      "Ġ95": 7175,
      "ĠSecond": 7176,
      "Ġsurvey": 7177,
      "Ġinvestigation": 7178,
      "Ġvehicle": 7179,
      "Ġdisease": 7180,
      "tec": 7181,
      "ĠDi": 7182,
      "Ġsimplement": 7183,
      "placement": 7184,
      "band": 7185,
      "Ġdevenir": 7186,
      "Ġrout": 7187,
      "tead": 7188,
      "iding": 7189,
      "hood": 7190,
      "Ġbio": 7191,
      "Ġalthough": 7192,
      "70": 7193,
      "itect": 7194,
      "Ġnomm": 7195,
      "Ġplas": 7196,
      "Â¨": 7197,
      "mont": 7198,
      "icite": 7199,
      "ĠFOR": 7200,
      "Ġawareness": 7201,
      "Ġpressure": 7202,
      "gie": 7203,
      "ĠMoi": 7204,
      "ĠJud": 7205,
      "Ġstup": 7206,
      "Ġcrisis": 7207,
      "self": 7208,
      "Ġsend": 7209,
      "roits": 7210,
      "Ġinside": 7211,
      "Ġyeah": 7212,
      "ĠFra": 7213,
      "ancy": 7214,
      "ĠResources": 7215,
      "Ins": 7216,
      "Ġcharges": 7217,
      "ĠPalestin": 7218,
      "lar": 7219,
      "ĠHol": 7220,
      "Ġtraditional": 7221,
      "Ġbirth": 7222,
      "Ġgarde": 7223,
      "Ġconsommateurs": 7224,
      "Ġpollution": 7225,
      "Ġcomments": 7226,
      "Ġsport": 7227,
      "Ġphone": 7228,
      "ĠprioritÃ©": 7229,
      "Ġphotos": 7230,
      "tte": 7231,
      "clam": 7232,
      "Ġconstru": 7233,
      "Ã©tation": 7234,
      "tiss": 7235,
      "Ġpoids": 7236,
      "Ġemployee": 7237,
      "Ġdiplom": 7238,
      "tabl": 7239,
      "Ġusers": 7240,
      "Ġ41": 7241,
      "tid": 7242,
      "Ġsleep": 7243,
      "Ġbus": 7244,
      "emment": 7245,
      "exam": 7246,
      "69": 7247,
      "La": 7248,
      "ĠMiss": 7249,
      "bli": 7250,
      "ĠInde": 7251,
      "Ġdoor": 7252,
      "Ã´m": 7253,
      "eneur": 7254,
      "Ġconnection": 7255,
      "Ġspeed": 7256,
      "Ġanimal": 7257,
      "ĠfÃ©dÃ©rale": 7258,
      "ĠRussian": 7259,
      "titut": 7260,
      "umÃ©": 7261,
      "ĠactivitÃ©": 7262,
      "Ġguess": 7263,
      "Ġquot": 7264,
      "entitÃ©": 7265,
      "ĠdÃ©mar": 7266,
      "ĠPM": 7267,
      "Ġsymb": 7268,
      "Ġterritory": 7269,
      "ĠcommencÃ©": 7270,
      "Ġapproximately": 7271,
      "Ġfou": 7272,
      "cemment": 7273,
      "Ġspecified": 7274,
      "ĠidÃ©e": 7275,
      "Ġviolations": 7276,
      "ĠrÃ©aliser": 7277,
      "Ġcontraire": 7278,
      "aurais": 7279,
      "ĠDocument": 7280,
      "onses": 7281,
      "ĠprÃªts": 7282,
      "ĠTerrit": 7283,
      "ĠBudget": 7284,
      "atever": 7285,
      "oo": 7286,
      "ulent": 7287,
      "Ġ65": 7288,
      "Ġprochaine": 7289,
      "Ġmid": 7290,
      "Ġdetailed": 7291,
      "Ġjuridiques": 7292,
      "NA": 7293,
      "eed": 7294,
      "rÃ©g": 7295,
      "FR": 7296,
      "estre": 7297,
      "cession": 7298,
      "Ġlimite": 7299,
      "ĠDÃ©claration": 7300,
      "Ġatteindre": 7301,
      "Ġestablishing": 7302,
      "erce": 7303,
      "Ġgre": 7304,
      "ĠFood": 7305,
      "berg": 7306,
      "ville": 7307,
      "ĠHi": 7308,
      "ums": 7309,
      "ĠUs": 7310,
      "Ġfol": 7311,
      "olf": 7312,
      "ĠJes": 7313,
      "aves": 7314,
      "Ġagent": 7315,
      "Ġexercise": 7316,
      "Ġprohib": 7317,
      "Ġpartnership": 7318,
      "Ġmec": 7319,
      "ĠMer": 7320,
      "Ġpretty": 7321,
      "jection": 7322,
      "Ġcircon": 7323,
      "alia": 7324,
      "Ġdest": 7325,
      "ĠrÃ©forme": 7326,
      "ĠintÃ©rieur": 7327,
      "ĠÃ©tablir": 7328,
      "wick": 7329,
      "ĠEsp": 7330,
      "Ġdemain": 7331,
      "ĠForces": 7332,
      "Ġhappy": 7333,
      "Ġpayer": 7334,
      "Je": 7335,
      "TE": 7336,
      "pret": 7337,
      "Ġcapable": 7338,
      "ĠTwo": 7339,
      "back": 7340,
      "ĠYuk": 7341,
      "Ġconstruc": 7342,
      "Ġ42": 7343,
      "Ġpresence": 7344,
      "Ġintegrated": 7345,
      "Ġmachine": 7346,
      "Ġlien": 7347,
      "Ġinvent": 7348,
      "Ġjeune": 7349,
      "Ġagree": 7350,
      "aughter": 7351,
      "ki": 7352,
      "Ġindustries": 7353,
      "ĠPark": 7354,
      "85": 7355,
      "bon": 7356,
      "once": 7357,
      "ĠFre": 7358,
      "ĠConsult": 7359,
      "ĠparlÃ©": 7360,
      "adem": 7361,
      "Ġcompared": 7362,
      "Ġworked": 7363,
      "Comm": 7364,
      "Ġvoix": 7365,
      "ĠQuoi": 7366,
      "Ġreflect": 7367,
      "Ġassociation": 7368,
      "Ġconflit": 7369,
      "Ġelectronic": 7370,
      "ĠpiÃ¨ces": 7371,
      "ĠItaly": 7372,
      "Ġpublications": 7373,
      "related": 7374,
      "Ġmauvais": 7375,
      "Ġvictims": 7376,
      "ĠVoilÃł": 7377,
      "ĠColombie": 7378,
      "Ġvivre": 7379,
      "Ġstra": 7380,
      "oudre": 7381,
      "Ġagricoles": 7382,
      "Ġtorture": 7383,
      "duit": 7384,
      "Ġsoutenir": 7385,
      "absence": 7386,
      "ham": 7387,
      "oples": 7388,
      "Ġparticipate": 7389,
      "centage": 7390,
      "Ġconflits": 7391,
      "ĠsiÃ¨": 7392,
      "ĠÃ©chÃ©": 7393,
      "Ġling": 7394,
      "Ġrue": 7395,
      "Ġstory": 7396,
      "ANS": 7397,
      "Ġraisonn": 7398,
      "ĠconsÃ©quences": 7399,
      "del": 7400,
      "ĠEuro": 7401,
      "Ġlegisl": 7402,
      "enge": 7403,
      "Ġcad": 7404,
      "Ġrecons": 7405,
      "Ġapplicables": 7406,
      "Ġgranted": 7407,
      "Ġeyes": 7408,
      "Ġreb": 7409,
      "Ġsea": 7410,
      "Ã´p": 7411,
      "ĠAfrique": 7412,
      "ĠCOMM": 7413,
      "informations": 7414,
      "ĠAustr": 7415,
      "Ġimplementing": 7416,
      "ĠdÃ©mon": 7417,
      "ĠGrand": 7418,
      "pd": 7419,
      "ĠrÃ©seaux": 7420,
      "Ġsales": 7421,
      "utor": 7422,
      "osl": 7423,
      "Ġsigned": 7424,
      "Ġretard": 7425,
      "Ġachieved": 7426,
      "Ġign": 7427,
      "Ġfell": 7428,
      "ĠEqu": 7429,
      "Ġcomprom": 7430,
      "Ġrisks": 7431,
      "ĠOffic": 7432,
      "FC": 7433,
      "room": 7434,
      "ainc": 7435,
      "ĠLou": 7436,
      "ova": 7437,
      "comp": 7438,
      "ĠMontrÃ©al": 7439,
      "Ġcampagne": 7440,
      "casting": 7441,
      "Ġbag": 7442,
      "Ġinterested": 7443,
      "Ġconstitu": 7444,
      "ĠLis": 7445,
      "ĠWar": 7446,
      "Ġintervention": 7447,
      "ĠComb": 7448,
      "ĠOfficial": 7449,
      "Ġsanc": 7450,
      "Ġdesc": 7451,
      "ola": 7452,
      "Ġ1989": 7453,
      "Ġsexual": 7454,
      "ĠFrank": 7455,
      "XX": 7456,
      "identif": 7457,
      "Ġreconna": 7458,
      "Ġdecre": 7459,
      "Ġimag": 7460,
      "Ġassociations": 7461,
      "Ġlanguages": 7462,
      "Ġrang": 7463,
      "ĠWind": 7464,
      "Ġstations": 7465,
      "Ġpouvoirs": 7466,
      "Ġfulf": 7467,
      "87": 7468,
      "Ġdehors": 7469,
      "Ġ44": 7470,
      "rible": 7471,
      "Ġyes": 7472,
      "Ġautour": 7473,
      "Ġviolation": 7474,
      "Ġrespecter": 7475,
      "Ġregulatory": 7476,
      "Ġpartner": 7477,
      "Ġalternative": 7478,
      "iodiff": 7479,
      "ĠsÃ»re": 7480,
      "64": 7481,
      "Acc": 7482,
      "ections": 7483,
      "Ġprincipalement": 7484,
      "Ġnumbers": 7485,
      "ounced": 7486,
      "Ġleading": 7487,
      "Ġproceedings": 7488,
      "Ġrejected": 7489,
      "OV": 7490,
      "ĠvidÃ©": 7491,
      "ĠtraitÃ©s": 7492,
      "Ã©volution": 7493,
      "Ġtribunal": 7494,
      "ĠIT": 7495,
      "Ġconnex": 7496,
      "Ġprincipales": 7497,
      "ĠprÃ©vue": 7498,
      "ĠconformitÃ©": 7499,
      "Ġcauses": 7500,
      "Ġdefinition": 7501,
      "ĠÃ©nonc": 7502,
      "levision": 7503,
      "Ġinformed": 7504,
      "ĠCD": 7505,
      "Ġrub": 7506,
      "Ġlearning": 7507,
      "Ġactes": 7508,
      "igneur": 7509,
      "Ġpouvait": 7510,
      "Ġinvestissements": 7511,
      "Ġband": 7512,
      "ĠPuis": 7513,
      "ommod": 7514,
      "Ġ57": 7515,
      "Ġderniers": 7516,
      "Ġlisten": 7517,
      "Ġphoto": 7518,
      "vie": 7519,
      "Ġhaven": 7520,
      "ĠChaque": 7521,
      "ĠdÃ©pend": 7522,
      "Ġcompagnie": 7523,
      "PI": 7524,
      "Ġdated": 7525,
      "Ġattem": 7526,
      "Ã©tro": 7527,
      "Ġensuring": 7528,
      "Ġscientifique": 7529,
      "ĠRad": 7530,
      "ÃīS": 7531,
      "Ġrecords": 7532,
      "93": 7533,
      "quie": 7534,
      "ĠSite": 7535,
      "Ġendroit": 7536,
      "ĠDescription": 7537,
      "Ġbrother": 7538,
      "Ġradiodiff": 7539,
      "Ġsauf": 7540,
      "ĠcaractÃ©ristiques": 7541,
      "ault": 7542,
      "Ġlad": 7543,
      "Ã©tudes": 7544,
      "ĠMembres": 7545,
      "Ġrecevoir": 7546,
      "Ġgradu": 7547,
      "2013": 7548,
      "Ġmessages": 7549,
      "ĠSaskatchewan": 7550,
      "wide": 7551,
      "Ġrelease": 7552,
      "ĠBell": 7553,
      "ĠprÃ©paration": 7554,
      "ĠbÃ¢ti": 7555,
      "ĠrÃ©ussi": 7556,
      "Ġpic": 7557,
      "Ġlongue": 7558,
      "Ġsciences": 7559,
      "Ġprofessionnels": 7560,
      "Ġcalls": 7561,
      "Ġalimentaire": 7562,
      "Ġconference": 7563,
      "Ġnegotiations": 7564,
      "criptions": 7565,
      "alys": 7566,
      "lephone": 7567,
      "Ġoffices": 7568,
      "racts": 7569,
      "Ġrendu": 7570,
      "ĠLand": 7571,
      "ously": 7572,
      "obtenir": 7573,
      "Ġemploi": 7574,
      "{\\": 7575,
      "sidi": 7576,
      "ĠEff": 7577,
      "Ġ43": 7578,
      "ĠclÃ©s": 7579,
      "Ġmodifier": 7580,
      "Ġadvice": 7581,
      "Ġfabric": 7582,
      "Ġafric": 7583,
      "ĠdÃ©chets": 7584,
      "ĠSafety": 7585,
      "iterran": 7586,
      "rimer": 7587,
      "ĠRepresent": 7588,
      "pite": 7589,
      "unk": 7590,
      "Ġfaite": 7591,
      "affirm": 7592,
      "Est": 7593,
      "Ġrom": 7594,
      "Ġtiss": 7595,
      "agriculture": 7596,
      "Ġexternal": 7597,
      "ĠdÃ©velopper": 7598,
      "Ġfinancing": 7599,
      "iger": 7600,
      "Ġinsurance": 7601,
      "Ġadvant": 7602,
      "tian": 7603,
      "ĠDom": 7604,
      "Ġsti": 7605,
      "ĠrÃ©per": 7606,
      "Ġdiscipl": 7607,
      "Ġcourant": 7608,
      "Ġpassage": 7609,
      "Ġreti": 7610,
      "apes": 7611,
      "Ġmentioned": 7612,
      "Ġfuck": 7613,
      "Ġalloc": 7614,
      "aily": 7615,
      "roy": 7616,
      "Ġrare": 7617,
      "importe": 7618,
      "Ã§ant": 7619,
      "Ġgotta": 7620,
      "Ġfundamental": 7621,
      "Ġmeaning": 7622,
      "ald": 7623,
      "Ġvend": 7624,
      "ĠPays": 7625,
      "Ġtransactions": 7626,
      "Ġresponsibilities": 7627,
      "ĠCRTC": 7628,
      "Ġoubl": 7629,
      "Ġhandicap": 7630,
      "rite": 7631,
      "Ã©tique": 7632,
      "itness": 7633,
      "Ġpron": 7634,
      "ĠFed": 7635,
      "Ġtemper": 7636,
      "Ġorganes": 7637,
      "espace": 7638,
      "igure": 7639,
      "agner": 7640,
      "ĠRem": 7641,
      "Ġbate": 7642,
      "Ġregistered": 7643,
      "Ġsubsequent": 7644,
      "ĠrÃ¨gle": 7645,
      "Ġexplo": 7646,
      "Ġdetails": 7647,
      "MR": 7648,
      "Ġregulation": 7649,
      "Ġblack": 7650,
      "ĠÃ©tudiants": 7651,
      "Ġcritical": 7652,
      "Ġgaran": 7653,
      "III": 7654,
      "Ġfabrication": 7655,
      "Ġdeep": 7656,
      "vey": 7657,
      "ĠdÃ©liv": 7658,
      "ĠÃ©trangÃ¨res": 7659,
      "Ġseems": 7660,
      "Ġduty": 7661,
      "ĠThanks": 7662,
      "Ġperfect": 7663,
      "Ġmises": 7664,
      "ĠrÃ©mun": 7665,
      "Ġgoes": 7666,
      "AV": 7667,
      "Â«": 7668,
      "Ġreduced": 7669,
      "ĠMembers": 7670,
      "Ġprofessionnelle": 7671,
      "Ġpermettent": 7672,
      "ĠPortugal": 7673,
      "ennes": 7674,
      "Ġfucking": 7675,
      "Ġround": 7676,
      "ĠGree": 7677,
      "ĠcomplÃ©ment": 7678,
      "Ġ58": 7679,
      "Ġlimites": 7680,
      "Ġcounter": 7681,
      "Ġlogici": 7682,
      "ĠÃ¢g": 7683,
      "Ġprovisoire": 7684,
      "Ġcondam": 7685,
      "ĠWH": 7686,
      "ĠYukon": 7687,
      "Ġrail": 7688,
      "ulf": 7689,
      "Ġcomputer": 7690,
      "ĠeuropÃ©ens": 7691,
      "Ġcompensation": 7692,
      "aid": 7693,
      "ographique": 7694,
      "Ġshit": 7695,
      "Ġpression": 7696,
      "ĠappelÃ©": 7697,
      "Ġmilliards": 7698,
      "92": 7699,
      "Ġhimself": 7700,
      "Ġgiving": 7701,
      "Ġpartenariat": 7702,
      "Ġtonnes": 7703,
      "Ġhost": 7704,
      "Ġparfois": 7705,
      "Ġdiffusion": 7706,
      "Ġprestation": 7707,
      "Ġdestruction": 7708,
      "ĠSous": 7709,
      "irme": 7710,
      "Ġbeyond": 7711,
      "Ġimmediately": 7712,
      "dra": 7713,
      "isp": 7714,
      "ĠStre": 7715,
      "ouveau": 7716,
      "ĠSupport": 7717,
      "Ġdirectrices": 7718,
      "Ġforte": 7719,
      "Ġfacile": 7720,
      "âĢ¦âĢ¦": 7721,
      "Ġcult": 7722,
      "ĠrÃ©cemment": 7723,
      "Ġfini": 7724,
      "lantic": 7725,
      "exportation": 7726,
      "impÃ´t": 7727,
      "roph": 7728,
      "ĠMinistre": 7729,
      "Ġscientific": 7730,
      "Ġtomorrow": 7731,
      "oblig": 7732,
      "Ġcontient": 7733,
      "Ġgrat": 7734,
      "Ġcroire": 7735,
      "Ġconstituent": 7736,
      "light": 7737,
      "atively": 7738,
      "akistan": 7739,
      "Ġsimpl": 7740,
      "Ġswe": 7741,
      "ĠJer": 7742,
      "Ġresource": 7743,
      "entiss": 7744,
      "ĠrÃ©gionales": 7745,
      "Ġinstance": 7746,
      "Ġ1988": 7747,
      "ĠVoici": 7748,
      "Ġitems": 7749,
      "applique": 7750,
      "ĠRich": 7751,
      "ĠGaz": 7752,
      "Ġseraient": 7753,
      "Ġscientifiques": 7754,
      "Ġmechanisms": 7755,
      "ĠRoman": 7756,
      "Ġselection": 7757,
      "Ġhumaine": 7758,
      "ĠrÃ¨glements": 7759,
      "Ġintegration": 7760,
      "quences": 7761,
      "Ġappr": 7762,
      "Ġappreci": 7763,
      "Ġscope": 7764,
      "ĠportÃ©e": 7765,
      "Ġrecently": 7766,
      "Ġprestations": 7767,
      "ĠspÃ©ciale": 7768,
      "Ġobtained": 7769,
      "Ġtoxic": 7770,
      "rÃ©es": 7771,
      "adresse": 7772,
      "prÃ©": 7773,
      "ĠKos": 7774,
      "Ġfranc": 7775,
      "Ġutile": 7776,
      "Ġchercheurs": 7777,
      "Ġfichier": 7778,
      "ĠIR": 7779,
      "Ġimporte": 7780,
      "Ġaband": 7781,
      "Ġpoursuivre": 7782,
      "house": 7783,
      "kraine": 7784,
      "Ġthous": 7785,
      "Ã©rÃ©s": 7786,
      "Ġspect": 7787,
      "rÃªte": 7788,
      "Ġmilitaires": 7789,
      "Ġsignifie": 7790,
      "Ouest": 7791,
      "ĠWait": 7792,
      "Ġrapporteur": 7793,
      "Ġcolle": 7794,
      "ĠNetwork": 7795,
      "tist": 7796,
      "ĠmÃ©r": 7797,
      "ĠTel": 7798,
      "Ġassets": 7799,
      "Ġschools": 7800,
      "ĠTax": 7801,
      "Ġunits": 7802,
      "ĠWater": 7803,
      "cture": 7804,
      "Ġefficient": 7805,
      "Ġfunctions": 7806,
      "Ġaqu": 7807,
      "Ġsale": 7808,
      "Ġisol": 7809,
      "ĠLtd": 7810,
      "Ġtravaille": 7811,
      "ĠAmendment": 7812,
      "entle": 7813,
      "Ġexpos": 7814,
      "bation": 7815,
      "ĠÃ©lections": 7816,
      "Ġneigh": 7817,
      "ĠAdd": 7818,
      "ĠrÃ©gionaux": 7819,
      "ĠbÃ©nÃ©fic": 7820,
      "________________________________": 7821,
      "Ġworry": 7822,
      "ĠCub": 7823,
      "Ġinsuff": 7824,
      "ĠexpÃ©ri": 7825,
      "ĠdÃ©mocratique": 7826,
      "Ġlaid": 7827,
      "ĠOJ": 7828,
      "ĠAvant": 7829,
      "lie": 7830,
      "Ġball": 7831,
      "ĠDen": 7832,
      "Ġsept": 7833,
      "Ġknows": 7834,
      "Ġcampaign": 7835,
      "autoritÃ©": 7836,
      "ĠMichael": 7837,
      "Ġobstacles": 7838,
      "vres": 7839,
      "ÃĬ": 7840,
      "lled": 7841,
      "Ġintroduced": 7842,
      "haps": 7843,
      "techn": 7844,
      "ĠHello": 7845,
      "Ġconnu": 7846,
      "Ġofficielles": 7847,
      "ext": 7848,
      "Ġintellig": 7849,
      "fully": 7850,
      "dessous": 7851,
      "Ġsatell": 7852,
      "91": 7853,
      "intes": 7854,
      "Ġcomposition": 7855,
      "ĠquantitÃ©": 7856,
      "FM": 7857,
      "vo": 7858,
      "Ġaliments": 7859,
      "ĠChief": 7860,
      "union": 7861,
      "ĠMat": 7862,
      "Ġtaxes": 7863,
      "Ġdifficul": 7864,
      "ĠAuthority": 7865,
      "%.": 7866,
      "ĠcÃ©l": 7867,
      "Ġeat": 7868,
      "Ġbox": 7869,
      "Ġemissions": 7870,
      "Ġcorruption": 7871,
      "Ġlivre": 7872,
      "ĠfrÃ¨re": 7873,
      "fond": 7874,
      "tect": 7875,
      "Ġduties": 7876,
      "ĠÃ©lÃ©ment": 7877,
      "Ġhit": 7878,
      "Ã¨vement": 7879,
      "Ġtransm": 7880,
      "Ġarriver": 7881,
      "Ġterritorial": 7882,
      "Ġengagements": 7883,
      "ĠrÃ©fugiÃ©s": 7884,
      "Ġvess": 7885,
      "Ġunless": 7886,
      "Ġsections": 7887,
      "ĠAfghanistan": 7888,
      "Ġdestination": 7889,
      "Ġpick": 7890,
      "enty": 7891,
      "ĠEven": 7892,
      "Ġacts": 7893,
      "engagement": 7894,
      "rimoine": 7895,
      "ĠdifficultÃ©s": 7896,
      "Ġmachines": 7897,
      "raction": 7898,
      "Ġtruth": 7899,
      "izes": 7900,
      "Ġveiller": 7901,
      "Ġofficials": 7902,
      "ĠSuper": 7903,
      "Ġbureaux": 7904,
      "Ġstakeholders": 7905,
      "Ġinclus": 7906,
      "ĠtuÃ©": 7907,
      "ancouver": 7908,
      "Ġ04": 7909,
      "Ġdiscussed": 7910,
      "ĠCy": 7911,
      "etary": 7912,
      "Ġcolon": 7913,
      "Ġchanger": 7914,
      "TH": 7915,
      "hyd": 7916,
      "Ġdiagn": 7917,
      "ports": 7918,
      "Ġfacilitate": 7919,
      "Ġdelegation": 7920,
      "ĠTom": 7921,
      "Ġonline": 7922,
      "ovo": 7923,
      "Ġrenv": 7924,
      "Ġfavoriser": 7925,
      "uves": 7926,
      "duire": 7927,
      "Ġmarketing": 7928,
      "Ġcalend": 7929,
      "Ġmusique": 7930,
      "ĠcompÃ©tence": 7931,
      "ridge": 7932,
      "enregistrement": 7933,
      "uci": 7934,
      "Ġfif": 7935,
      "Ġprofond": 7936,
      "Ġmedic": 7937,
      "ĠarrivÃ©": 7938,
      "esses": 7939,
      "Ġaward": 7940,
      "Ġcombin": 7941,
      "enous": 7942,
      "Ġexcept": 7943,
      "itive": 7944,
      "Ġ1987": 7945,
      "Ġlisted": 7946,
      "Ġclassification": 7947,
      "OUR": 7948,
      "Ġtab": 7949,
      "Ã©rop": 7950,
      "riez": 7951,
      "ĠprivÃ©e": 7952,
      "Ġara": 7953,
      "Ġgross": 7954,
      "ĠRien": 7955,
      "Ġtraiter": 7956,
      "ĠVoir": 7957,
      "prÃ©sent": 7958,
      "Ġ56": 7959,
      "Ġgouvernementales": 7960,
      "ĠÃ©quipe": 7961,
      "ĠForeign": 7962,
      "gov": 7963,
      "Ġwide": 7964,
      "Ġdevoir": 7965,
      "ĠrÃ©ponses": 7966,
      "ĠCorporation": 7967,
      "Ġestimated": 7968,
      "Ġcau": 7969,
      "Ġmi": 7970,
      "Ġcompati": 7971,
      "crire": 7972,
      "Ġtonight": 7973,
      "ĠPut": 7974,
      "onnÃ©": 7975,
      "ĠmodÃ¨les": 7976,
      "ĠAssess": 7977,
      "ĠPremier": 7978,
      "Ġintention": 7979,
      "Ġtraite": 7980,
      "rastructures": 7981,
      "ĠSchool": 7982,
      "Ġwonder": 7983,
      "ently": 7984,
      "Ġproducteurs": 7985,
      "ĠTrÃ¨s": 7986,
      "ĠcollÃ¨g": 7987,
      "entissage": 7988,
      "uting": 7989,
      "Ġrequirement": 7990,
      "Ġemergency": 7991,
      "ĠPeter": 7992,
      "ĠVis": 7993,
      "Ġpersonnels": 7994,
      "Ġexpertise": 7995,
      "Ġwelcome": 7996,
      "experts": 7997,
      "appelle": 7998,
      "Ġsessions": 7999,
      "ĠgÃ©nÃ©rales": 8000,
      "Ġcommerciales": 8001,
      "ĠGeorge": 8002,
      "ky": 8003,
      "ĠbÃ©b": 8004,
      "ĠPoint": 8005,
      "stÃ¨me": 8006,
      "Ġcontains": 8007,
      "Ġ54": 8008,
      "Ġdivision": 8009,
      "ĠimmÃ©diatement": 8010,
      "CI": 8011,
      "esprit": 8012,
      "Ġconclu": 8013,
      "73": 8014,
      "undi": 8015,
      "ĠBull": 8016,
      "utiliser": 8017,
      "ĠtempÃ©r": 8018,
      "Ġpeuples": 8019,
      "Ġsanctions": 8020,
      "ĠRÃ©g": 8021,
      "ĠJesus": 8022,
      "Ġtandis": 8023,
      "ĠHÃ©": 8024,
      "Ġworksh": 8025,
      "Ġhumanitarian": 8026,
      "intervention": 8027,
      "ĠAutres": 8028,
      "unswick": 8029,
      "cel": 8030,
      "cles": 8031,
      "Ġpartout": 8032,
      "Ġconsultatif": 8033,
      "Ġoffered": 8034,
      "ĠDeclar": 8035,
      "atriÃ¨me": 8036,
      "78": 8037,
      "gues": 8038,
      "ĠQuelle": 8039,
      "ĠcatÃ©gories": 8040,
      "sons": 8041,
      "ĠrÃª": 8042,
      "ĠTell": 8043,
      "Ġwhom": 8044,
      "Ġstatements": 8045,
      "Ġreten": 8046,
      "Ã¨ves": 8047,
      "prÃ©tation": 8048,
      "Ġinstructions": 8049,
      "Ġprobablement": 8050,
      "ĠChapter": 8051,
      "ĠIr": 8052,
      "Ġmarche": 8053,
      "ĠFac": 8054,
      "Ġproduire": 8055,
      "Ġrestrictions": 8056,
      "istics": 8057,
      "Ġstuff": 8058,
      "Ġperte": 8059,
      "Ġconcert": 8060,
      "Ġvendre": 8061,
      "Ġpremiers": 8062,
      "Ġutilisation": 8063,
      "EU": 8064,
      "zed": 8065,
      "ĠvolontÃ©": 8066,
      "pect": 8067,
      "Ġble": 8068,
      "ĠPN": 8069,
      "Ġstre": 8070,
      "ĠmoitiÃ©": 8071,
      "Ġmains": 8072,
      "ĠconsidÃ©rable": 8073,
      "Ã©tablir": 8074,
      "utÃ©s": 8075,
      "ĠRome": 8076,
      "Ġconsiste": 8077,
      "ĠOnly": 8078,
      "Ġreached": 8079,
      "Ġconserv": 8080,
      "ĠConc": 8081,
      "Ġministres": 8082,
      "ĠCharter": 8083,
      "resh": 8084,
      "ĠintÃ©rÃªt": 8085,
      "Ã©change": 8086,
      "Ġpromoting": 8087,
      "We": 8088,
      "ĠCamp": 8089,
      "ĠPos": 8090,
      "Ġgoals": 8091,
      "Ġroy": 8092,
      "Ġgrowing": 8093,
      "ala": 8094,
      "ĠenquÃªte": 8095,
      "Ã©dÃ©ration": 8096,
      "ĠPrincip": 8097,
      "bi": 8098,
      "ĠdÃ©ten": 8099,
      "Ġindique": 8100,
      "Ġnaturel": 8101,
      "ĠPrime": 8102,
      "Ġsoftware": 8103,
      "51": 8104,
      "Ġcontinues": 8105,
      "Ġdebt": 8106,
      "Ġmurder": 8107,
      "Ġmm": 8108,
      "ĠEv": 8109,
      "ĠToutes": 8110,
      "estiv": 8111,
      "ĠFait": 8112,
      "Ġpartage": 8113,
      "UniversitÃ©": 8114,
      "Ġiden": 8115,
      "affaire": 8116,
      "Ġexaminer": 8117,
      "Ġsetting": 8118,
      "ĠSpain": 8119,
      "Ġrecognized": 8120,
      "ĠWestern": 8121,
      "Ġcirconstances": 8122,
      "set": 8123,
      "ĠBos": 8124,
      "Ġexac": 8125,
      "observ": 8126,
      "Ġtransformation": 8127,
      "Ġmaintenir": 8128,
      "Ġcomprends": 8129,
      "ĠNorthern": 8130,
      "vÃ©s": 8131,
      "ĠHaut": 8132,
      "Ġimpli": 8133,
      "ĠprÃ©al": 8134,
      "Ġtitulaire": 8135,
      "Ġdatab": 8136,
      "Ġoutils": 8137,
      "ration": 8138,
      "attention": 8139,
      "Ġ51": 8140,
      "Ġexpert": 8141,
      "Ġviews": 8142,
      "ĠCoun": 8143,
      "ĠMost": 8144,
      "Ġaffirm": 8145,
      "Ġcouldn": 8146,
      "Ã©ros": 8147,
      "initiative": 8148,
      "aritÃ©": 8149,
      "iring": 8150,
      "agÃ©": 8151,
      "ĠBay": 8152,
      "Ġsignature": 8153,
      "Ġpayments": 8154,
      "Ġferme": 8155,
      "Ġabsence": 8156,
      "Ġongoing": 8157,
      "Ġtransit": 8158,
      "Ġdevrais": 8159,
      "Ġchanged": 8160,
      "Ġnaturelles": 8161,
      "ĠHon": 8162,
      "Ġprocessing": 8163,
      "ĠÃ©viter": 8164,
      "Ġessentiel": 8165,
      "Ġchemical": 8166,
      "Ġsubsidi": 8167,
      "veloppement": 8168,
      "Ġtotale": 8169,
      "Ġfigurant": 8170,
      "ĠÃ©trangers": 8171,
      "ĠDeclaration": 8172,
      "estation": 8173,
      "auff": 8174,
      "Ġarbit": 8175,
      "Ã®t": 8176,
      "Ġsimply": 8177,
      "Ġcommencer": 8178,
      "--------": 8179,
      "redi": 8180,
      "ĠAM": 8181,
      "Ġexamine": 8182,
      "ĠSans": 8183,
      "ĠHist": 8184,
      "espÃ¨re": 8185,
      "Ġweapons": 8186,
      "Ġelection": 8187,
      "ĠadÃ©qu": 8188,
      "Ġdossiers": 8189,
      "cs": 8190,
      "ĠBet": 8191,
      "avy": 8192,
      "Ġesc": 8193,
      "seau": 8194,
      "Ġatmosph": 8195,
      "ĠconsÃ©quence": 8196,
      "Ġretraite": 8197,
      "Ġannivers": 8198,
      "Ġdifference": 8199,
      "Ġtient": 8200,
      "Ġcoin": 8201,
      "ĠEX": 8202,
      "uable": 8203,
      "Ã¨tement": 8204,
      "otte": 8205,
      "Ġregistration": 8206,
      "Ġbases": 8207,
      "ographie": 8208,
      "Ġaccepted": 8209,
      "Britannique": 8210,
      "unitÃ©": 8211,
      "Ġseven": 8212,
      "ĠNews": 8213,
      "Ġvehicles": 8214,
      "Ġ1986": 8215,
      "ĠAsia": 8216,
      "Ġriv": 8217,
      "Ġplate": 8218,
      "Ġdiscl": 8219,
      "ĠÂ·": 8220,
      "Ġamounts": 8221,
      "ĠCommunications": 8222,
      "ERS": 8223,
      "Ġvariety": 8224,
      "ĠJapon": 8225,
      "amour": 8226,
      "standing": 8227,
      "Ġreserv": 8228,
      "Ġdog": 8229,
      "Ġuseful": 8230,
      "Ġhighly": 8231,
      "Ġutilisateurs": 8232,
      "ĠPremiÃ¨res": 8233,
      "Ãļ": 8234,
      "Ġwhite": 8235,
      "ocracy": 8236,
      "Ġvieux": 8237,
      "Ġstruct": 8238,
      "ĠSorry": 8239,
      "essai": 8240,
      "Ġinterventions": 8241,
      "Ġ46": 8242,
      "asses": 8243,
      "uits": 8244,
      "Ġ49": 8245,
      "ĠministÃ©": 8246,
      "Ġ1985": 8247,
      "Ġagricole": 8248,
      "eline": 8249,
      "Ġclub": 8250,
      "Ġimages": 8251,
      "Ġexactly": 8252,
      "moins": 8253,
      "environ": 8254,
      "alian": 8255,
      "Ġmarine": 8256,
      "Ġreligion": 8257,
      "QUE": 8258,
      "ds": 8259,
      "icts": 8260,
      "Ġselected": 8261,
      "ĠEnc": 8262,
      "Ġformal": 8263,
      "ĠArm": 8264,
      "Ġrevoir": 8265,
      "Ġofficiel": 8266,
      "nÃ©e": 8267,
      "with": 8268,
      "Ġkids": 8269,
      "Ġ88": 8270,
      "Ġimproving": 8271,
      "ĠIndustry": 8272,
      "Ġfixed": 8273,
      "Ġaimed": 8274,
      "iendra": 8275,
      "ĠNos": 8276,
      "Ġrecueill": 8277,
      "Ġaffaire": 8278,
      "Ġterritoires": 8279,
      "Ġwid": 8280,
      "Ġenforcement": 8281,
      "Ġconsensus": 8282,
      "Ġexige": 8283,
      "ĠmÃ©canisme": 8284,
      "Ġcond": 8285,
      "istant": 8286,
      "ĠspÃ©cifique": 8287,
      "rin": 8288,
      "Ġstable": 8289,
      "ĠLake": 8290,
      "ĠparticuliÃ¨re": 8291,
      "Ġraised": 8292,
      "ĠMinisters": 8293,
      "Ġatteint": 8294,
      "ĠNouvelle": 8295,
      "Ãı": 8296,
      "Ġdad": 8297,
      "Ġfinance": 8298,
      "Ġdied": 8299,
      "ĠmodalitÃ©s": 8300,
      "Ġobtenu": 8301,
      "Ã©tranger": 8302,
      "52": 8303,
      "atte": 8304,
      "ĠPop": 8305,
      "Ġ02": 8306,
      "Ġcinqu": 8307,
      "ĠFam": 8308,
      "ĠvÃ©ritÃ©": 8309,
      "53": 8310,
      "Ġdream": 8311,
      "ano": 8312,
      "Ġdeleg": 8313,
      "oring": 8314,
      "Ġow": 8315,
      "aters": 8316,
      "Ġing": 8317,
      "ander": 8318,
      "Ġchron": 8319,
      "Ġindire": 8320,
      "ĠChildren": 8321,
      "ĠsecrÃ©tariat": 8322,
      "Ġintervenants": 8323,
      "emb": 8324,
      "Ġaware": 8325,
      "ĠforÃª": 8326,
      "ĠDÃ©p": 8327,
      "Ġpourcentage": 8328,
      "ĠHaiti": 8329,
      "ictor": 8330,
      "ĠGuide": 8331,
      "ĠCompany": 8332,
      "Ġofficers": 8333,
      "ĠÃ©vÃ©nements": 8334,
      "Ġradiodiffusion": 8335,
      "ging": 8336,
      "Ã±": 8337,
      "Ġmens": 8338,
      "arity": 8339,
      "uls": 8340,
      "Ġstyle": 8341,
      "Ġsupporting": 8342,
      "ĠProtocole": 8343,
      "Ġenhance": 8344,
      "col": 8345,
      "irms": 8346,
      "ĠRequ": 8347,
      "ruits": 8348,
      "Ġeffectiveness": 8349,
      "Ġhistoire": 8350,
      "ATI": 8351,
      "ĠDoc": 8352,
      "onnÃ©es": 8353,
      "ariats": 8354,
      "Ġenvironnementale": 8355,
      "ĠParticip": 8356,
      "za": 8357,
      "Ġtrib": 8358,
      "Ġrej": 8359,
      "umul": 8360,
      "ĠKar": 8361,
      "Ġimproved": 8362,
      "Ġconjoin": 8363,
      "Ġincorpor": 8364,
      "Ġlinguis": 8365,
      "orable": 8366,
      "Ġmerci": 8367,
      "Ġfera": 8368,
      "ĠCount": 8369,
      "Ġaccus": 8370,
      "eneurs": 8371,
      "ĠcomplÃ¨te": 8372,
      "Ġofficer": 8373,
      "Ġouvert": 8374,
      "GO": 8375,
      "Ġtellement": 8376,
      "Ġcouv": 8377,
      "Ġworth": 8378,
      "ĠDay": 8379,
      "existence": 8380,
      "DA": 8381,
      "ansion": 8382,
      "Ġallons": 8383,
      "ĠCongo": 8384,
      "Ġgives": 8385,
      "Ġmariage": 8386,
      "Ġjudiciaire": 8387,
      "innovation": 8388,
      "erait": 8389,
      "imb": 8390,
      "ĠrÃ©alitÃ©": 8391,
      "ĠGuid": 8392,
      "Ġjobs": 8393,
      "Ġexcellent": 8394,
      "ĠSir": 8395,
      "riques": 8396,
      "Ġinterpret": 8397,
      "Ġseconde": 8398,
      "itesse": 8399,
      "ĠdÃ©crit": 8400,
      "Ġprincipale": 8401,
      "Ġcaused": 8402,
      "ga": 8403,
      "ĠPC": 8404,
      "Ġrecommandation": 8405,
      "ĠvÃ©ritable": 8406,
      "Ġentend": 8407,
      "Ġproduce": 8408,
      "Ġearlier": 8409,
      "ĠRen": 8410,
      "Ġbelong": 8411,
      "Ġfid": 8412,
      "Ġstocks": 8413,
      "minal": 8414,
      "ĠGÃ©n": 8415,
      "ĠrÃ©gionale": 8416,
      "QU": 8417,
      "Ġmots": 8418,
      "Ġtool": 8419,
      "Ġproven": 8420,
      "Ġbegan": 8421,
      "ĠFri": 8422,
      "ĠHong": 8423,
      "Ġdomm": 8424,
      "Ġlie": 8425,
      "impact": 8426,
      "Ġgoal": 8427,
      "Ġ1980": 8428,
      "ĠdÃ©fis": 8429,
      "ĠdÃ©solÃ©": 8430,
      "ĠImplement": 8431,
      "BC": 8432,
      "igenous": 8433,
      "imes": 8434,
      "ĠCommon": 8435,
      "entis": 8436,
      "Ġretourn": 8437,
      "Ġefficaces": 8438,
      "Ġtried": 8439,
      "Ġinnovation": 8440,
      "Ġcompetent": 8441,
      "Ġrace": 8442,
      "ĠÃ©cl": 8443,
      "ĠÃ©valuer": 8444,
      "ractions": 8445,
      "ĠpremiÃ¨res": 8446,
      "Ġbuy": 8447,
      "Ġpermettra": 8448,
      "Ġaccessible": 8449,
      "Ġlieux": 8450,
      "ĠmÃ©m": 8451,
      "Ġusually": 8452,
      "ĠutilisÃ©es": 8453,
      "Ġexclusive": 8454,
      "Ġadequate": 8455,
      "Ġcess": 8456,
      "Ġbrief": 8457,
      "Ġhus": 8458,
      "assin": 8459,
      "quar": 8460,
      "ointed": 8461,
      "Ġ150": 8462,
      "ĠAgriculture": 8463,
      "Ġefficiency": 8464,
      "Ġchallenge": 8465,
      "PE": 8466,
      "Ġdress": 8467,
      "Ġtask": 8468,
      "ĠCop": 8469,
      "Ġdouan": 8470,
      "Ġpossibility": 8471,
      "Ġpleinement": 8472,
      "chant": 8473,
      "Ġanimals": 8474,
      "tÃ©rieure": 8475,
      "Ġbour": 8476,
      "ĠGene": 8477,
      "acement": 8478,
      "ĠMany": 8479,
      "Ġparagraphes": 8480,
      "Ġtirer": 8481,
      "este": 8482,
      "Ġbelle": 8483,
      "2012": 8484,
      "Ġconcentrations": 8485,
      "ĠFollow": 8486,
      "ĠexpÃ©rience": 8487,
      "Ġ03": 8488,
      "effet": 8489,
      "TO": 8490,
      "iaux": 8491,
      "Ĥ¬": 8492,
      "Ġcouver": 8493,
      "ocal": 8494,
      "TV": 8495,
      "Ġclair": 8496,
      "Ġlooks": 8497,
      "tirer": 8498,
      "Ġahead": 8499,
      "ĠCiv": 8500,
      "Ġmonsieur": 8501,
      "ĠexaminÃ©": 8502,
      "Ġimmigr": 8503,
      "Ġundertaken": 8504,
      "Ġmouvement": 8505,
      "Ġquotid": 8506,
      "uÃ©s": 8507,
      "ĠProjet": 8508,
      "Ġsometimes": 8509,
      "Ġload": 8510,
      "Ġdimension": 8511,
      "ĠIndian": 8512,
      "urrent": 8513,
      "Ġmotiv": 8514,
      "Ġeligible": 8515,
      "2015": 8516,
      "ĠsiÃ¨cle": 8517,
      "Ġsomme": 8518,
      "ĠAU": 8519,
      "Ġindicate": 8520,
      "ĠStrategy": 8521,
      "Ġdegree": 8522,
      "nance": 8523,
      "water": 8524,
      "ĠEach": 8525,
      "ĠNation": 8526,
      "ĠIsland": 8527,
      "Ġconduite": 8528,
      "Ġconcluded": 8529,
      "ĠTerre": 8530,
      "ĠVancouver": 8531,
      "ĠPolice": 8532,
      "atrice": 8533,
      "Ġprolong": 8534,
      "Ġpou": 8535,
      "Ġparole": 8536,
      "Ġtrafic": 8537,
      "Ġ52": 8538,
      "ĠChin": 8539,
      "Ġfast": 8540,
      "ĠSant": 8541,
      "ĠBill": 8542,
      "ĠUr": 8543,
      "ĠdonnÃ©e": 8544,
      "ĠPay": 8545,
      "Ġmaritime": 8546,
      "eping": 8547,
      "Ã¢te": 8548,
      "Ġblanc": 8549,
      "ĠIP": 8550,
      "ppe": 8551,
      "Ġprefer": 8552,
      "ĠEnergy": 8553,
      "Ġfiles": 8554,
      "ĠCertains": 8555,
      "jan": 8556,
      "ussels": 8557,
      "Ġearth": 8558,
      "ĠcÅĵur": 8559,
      "iling": 8560,
      "ĠVice": 8561,
      "ĠAdministration": 8562,
      "Ġfourni": 8563,
      "no": 8564,
      "rai": 8565,
      "ĠHaving": 8566,
      "Ġseparate": 8567,
      "DR": 8568,
      "ĠPakistan": 8569,
      "idÃ©e": 8570,
      "Ġplaced": 8571,
      "Ġnotification": 8572,
      "aimerais": 8573,
      "Ġcontenant": 8574,
      "ĠtÃ©lÃ©vision": 8575,
      "aven": 8576,
      "don": 8577,
      "Ġsupposed": 8578,
      "ĠArticles": 8579,
      "2014": 8580,
      "Ġremplac": 8581,
      "Ġcorrec": 8582,
      "Ġexpenditure": 8583,
      "EE": 8584,
      "ura": 8585,
      "ĠGreen": 8586,
      "ify": 8587,
      "Ġoffrir": 8588,
      "ĠprocÃ©der": 8589,
      "undred": 8590,
      "Ġsympt": 8591,
      "ĠpÃ©tro": 8592,
      "ĠMeeting": 8593,
      "abinet": 8594,
      "UB": 8595,
      "yez": 8596,
      "anish": 8597,
      "importation": 8598,
      "Ġtrouble": 8599,
      "hol": 8600,
      "reland": 8601,
      "Ġannexe": 8602,
      "ingt": 8603,
      "Ġcash": 8604,
      "ĠAdmin": 8605,
      "Ġterrorism": 8606,
      "Ġreconnaissance": 8607,
      "ĠBal": 8608,
      "Ġthanks": 8609,
      "Ġresulting": 8610,
      "ĠdiversitÃ©": 8611,
      "rets": 8612,
      "ĠBo": 8613,
      "Ġregards": 8614,
      "Ġpuissent": 8615,
      "Ġdamage": 8616,
      "ĠData": 8617,
      "ĠprocÃ¨s": 8618,
      "Ġcomponents": 8619,
      "gress": 8620,
      "tiers": 8621,
      "Ġgauche": 8622,
      "ĠSuch": 8623,
      "rary": 8624,
      "Ġsqu": 8625,
      "Ġfirm": 8626,
      "stat": 8627,
      "pring": 8628,
      "Ġ400": 8629,
      "ANT": 8630,
      "Ġcommuniquer": 8631,
      "ĠÃ©nergÃ©": 8632,
      "OW": 8633,
      "Ġcaf": 8634,
      "Ġquit": 8635,
      "ĠImm": 8636,
      "ĠIntro": 8637,
      "Ġbienn": 8638,
      "ĠrÃ©cup": 8639,
      "Ġplanned": 8640,
      "ĠSwed": 8641,
      "Ġwaiting": 8642,
      "road": 8643,
      "Ġhour": 8644,
      "Ġrein": 8645,
      "Ġneuf": 8646,
      "Ġweak": 8647,
      "Ġorganized": 8648,
      "ĠvÃ©hicule": 8649,
      "MA": 8650,
      "ĠCost": 8651,
      "Ġlett": 8652,
      "ĠTour": 8653,
      "ĠTod": 8654,
      "Ġgentle": 8655,
      "Ã´me": 8656,
      "Ġotherwise": 8657,
      "Ġglobale": 8658,
      "program": 8659,
      "Ġpensais": 8660,
      "Ġdistrict": 8661,
      "Ġfuel": 8662,
      "ĠTÃ©l": 8663,
      "ÃīR": 8664,
      "ĠExpl": 8665,
      "ĠExper": 8666,
      "ĠcrÃ©dits": 8667,
      "ford": 8668,
      "ĠCam": 8669,
      "Ġapporter": 8670,
      "Ġlines": 8671,
      "Ġwitness": 8672,
      "Ġforest": 8673,
      "ĠBre": 8674,
      "Ġmener": 8675,
      "ĠmodifiÃ©": 8676,
      "ĠAtlantic": 8677,
      "Ġfiled": 8678,
      "ĠMadame": 8679,
      "arth": 8680,
      "Ġappe": 8681,
      "Ġconsumption": 8682,
      ".Â»": 8683,
      "anie": 8684,
      "endix": 8685,
      "Ġseason": 8686,
      "ystÃ©": 8687,
      "sibilitÃ©": 8688,
      "Ġfournit": 8689,
      "ĠnuclÃ©aires": 8690,
      "Ġfelt": 8691,
      "ĠinfÃ©rie": 8692,
      "Ġdisting": 8693,
      "ĠmÃ©l": 8694,
      "Ġones": 8695,
      "Ġappell": 8696,
      "Ġillustr": 8697,
      "Ġdrugs": 8698,
      "Ġcompletely": 8699,
      "ĠOfficer": 8700,
      "ĠKosovo": 8701,
      "Ġuns": 8702,
      "Ġcentury": 8703,
      "Ġeffectively": 8704,
      "Ġhydro": 8705,
      "ĠtÃ´t": 8706,
      "Ã©nie": 8707,
      "Ġpartis": 8708,
      "oking": 8709,
      "Ġbuilt": 8710,
      "Ġfishing": 8711,
      "Ġpreparation": 8712,
      "Ġurban": 8713,
      "Ġdiagnos": 8714,
      "Ġrecip": 8715,
      "Ġabord": 8716,
      "ĠutilisÃ©e": 8717,
      "Ġprovinci": 8718,
      "ĠdÃ©tails": 8719,
      "Ġtrim": 8720,
      "elier": 8721,
      "Ġgreen": 8722,
      "Ã¨tre": 8723,
      "Ã©limination": 8724,
      "cool": 8725,
      "ettes": 8726,
      "angl": 8727,
      "Ġ53": 8728,
      "Ġannounced": 8729,
      "ĠPeace": 8730,
      "ĠEmployment": 8731,
      "eds": 8732,
      "Ġrid": 8733,
      "ĠMag": 8734,
      "grad": 8735,
      "Ġ08": 8736,
      "Ġwood": 8737,
      "Ġunemploy": 8738,
      "Ġmob": 8739,
      "itim": 8740,
      "Ġvenu": 8741,
      "Ġpenser": 8742,
      "Ġcandidates": 8743,
      "Ġvirus": 8744,
      "ĠTechnology": 8745,
      "ĠstabilitÃ©": 8746,
      "useum": 8747,
      "Ġsupports": 8748,
      "ĠTherefore": 8749,
      "ĠPriv": 8750,
      "Ġrunning": 8751,
      "Ġlength": 8752,
      "Ġsave": 8753,
      "Ġparticuliers": 8754,
      "Ġgets": 8755,
      "Ġconvainc": 8756,
      "Ġsujets": 8757,
      "ĠtÃ¢ches": 8758,
      "AU": 8759,
      "bor": 8760,
      "Ġcach": 8761,
      "avons": 8762,
      "ĠdÃ©pÃ´t": 8763,
      "Ġflu": 8764,
      "ĠfondÃ©e": 8765,
      "fri": 8766,
      "Ġpourrais": 8767,
      "entiel": 8768,
      "ĠdÃ©clarations": 8769,
      "Ex": 8770,
      "St": 8771,
      "ĠAlex": 8772,
      "ĠGR": 8773,
      "ĠvoilÃł": 8774,
      "Ġseek": 8775,
      "Ġradi": 8776,
      "augmentation": 8777,
      "gne": 8778,
      "inary": 8779,
      "Ġelections": 8780,
      "Ġplants": 8781,
      "Ġminister": 8782,
      "Ġfloor": 8783,
      "apprentissage": 8784,
      "mÃ©diaire": 8785,
      "making": 8786,
      "Ġbonnes": 8787,
      "urÃ©": 8788,
      "ĠBack": 8789,
      "Ġkg": 8790,
      "Ġlinks": 8791,
      "Canada": 8792,
      "DS": 8793,
      "Ġforg": 8794,
      "Ġdiam": 8795,
      "Ġmatern": 8796,
      "hington": 8797,
      "ĠAmendement": 8798,
      "ĠsoulignÃ©": 8799,
      "pol": 8800,
      "ĠNothing": 8801,
      "ĠdÃ©couver": 8802,
      "Ġdestro": 8803,
      "expression": 8804,
      "PL": 8805,
      "ĠLit": 8806,
      "ida": 8807,
      "ĠThose": 8808,
      "ĠObjec": 8809,
      "Ġcultures": 8810,
      "ĠFais": 8811,
      "ĠâĢ¦": 8812,
      "Ġcooper": 8813,
      "etherlands": 8814,
      "Ġpor": 8815,
      "Ġallem": 8816,
      "Ġshared": 8817,
      "1998": 8818,
      "Ġcatast": 8819,
      "Ġhy": 8820,
      "ĠIreland": 8821,
      "Ġenfin": 8822,
      "Ġcommunes": 8823,
      "Ġrob": 8824,
      "organisme": 8825,
      "Ġreasonable": 8826,
      "Ġfournisseurs": 8827,
      "Institut": 8828,
      "MS": 8829,
      "lymp": 8830,
      "Ġcommentaires": 8831,
      "ĠsupplÃ©mentaire": 8832,
      "examiner": 8833,
      "ĠÃ©chÃ©ant": 8834,
      "ered": 8835,
      "Ġenl": 8836,
      "ĠdÃ©rou": 8837,
      "Ġalleg": 8838,
      "ĠViens": 8839,
      "Ġdoub": 8840,
      "Ġdrive": 8841,
      "Ġeducational": 8842,
      "Ġep": 8843,
      "Ġsurpr": 8844,
      "Ġuser": 8845,
      "ĠdÃ©posÃ©": 8846,
      "Ġprofessionnel": 8847,
      "Accord": 8848,
      "ĠStreet": 8849,
      "500": 8850,
      "FOR": 8851,
      "riage": 8852,
      "Ġ59": 8853,
      "Ġ77": 8854,
      "Ġexpenses": 8855,
      "Ġentier": 8856,
      "ĠfranÃ§aise": 8857,
      "ĠNombre": 8858,
      "Ġentrer": 8859,
      "akes": 8860,
      "Ġcommitments": 8861,
      "ĠDar": 8862,
      "ago": 8863,
      "Ġhein": 8864,
      "Ġutilisant": 8865,
      "ĠPersonne": 8866,
      "Ġguarantee": 8867,
      "Ġtomb": 8868,
      "orage": 8869,
      "Ġfear": 8870,
      "ĠÃ£": 8871,
      "Ġplat": 8872,
      "opie": 8873,
      "ishing": 8874,
      "Ġdomin": 8875,
      "Ġpractical": 8876,
      "ĠSing": 8877,
      "Ġagency": 8878,
      "Ġlegislative": 8879,
      "onia": 8880,
      "Ġeight": 8881,
      "ĠconsidÃ©rÃ©": 8882,
      "ĠMexico": 8883,
      "ICEF": 8884,
      "Ġenseign": 8885,
      "zz": 8886,
      "ĠHot": 8887,
      "ĠprÃ©venir": 8888,
      "ĠRegard": 8889,
      "tiennent": 8890,
      "ĠdestinÃ©s": 8891,
      "Ġplaisir": 8892,
      "Ġinh": 8893,
      "Ġperp": 8894,
      "Ġprochain": 8895,
      "lantique": 8896,
      "Ġpara": 8897,
      "appar": 8898,
      "ugg": 8899,
      "onneur": 8900,
      "Ã©mie": 8901,
      "Ġdepos": 8902,
      "Ġmedium": 8903,
      "ĠDirecteur": 8904,
      "Ġstip": 8905,
      "atta": 8906,
      "Ġvilles": 8907,
      "ĠJames": 8908,
      "ormais": 8909,
      "Ġcontaining": 8910,
      "extÃ©rieur": 8911,
      "Ġgraves": 8912,
      "entrer": 8913,
      "ĠRussia": 8914,
      "Ġsavais": 8915,
      "ĠmÃ©decin": 8916,
      "building": 8917,
      "Ġfaute": 8918,
      "ĠFound": 8919,
      "isez": 8920,
      "Ġtransp": 8921,
      "De": 8922,
      "lets": 8923,
      "Ġhearing": 8924,
      "Ġextraordin": 8925,
      "AIN": 8926,
      "doc": 8927,
      "ened": 8928,
      "Ã©riques": 8929,
      "chez": 8930,
      "ĠprÃ©f": 8931,
      "Ġsuppose": 8932,
      "Ġlocale": 8933,
      "force": 8934,
      "ĠAbout": 8935,
      "Ġlicense": 8936,
      "Ġallows": 8937,
      "Ġagriculture": 8938,
      "Ġintellectuelle": 8939,
      "Ġdaily": 8940,
      "ayer": 8941,
      "Ġpouvant": 8942,
      "Ġnegative": 8943,
      "rey": 8944,
      "Ġvent": 8945,
      "Ġavoc": 8946,
      "tiÃ¨re": 8947,
      "Ġimpacts": 8948,
      "Ã´ts": 8949,
      "ESS": 8950,
      "ĠFederation": 8951,
      "Ġhusband": 8952,
      "ĠLast": 8953,
      "Ġresol": 8954,
      "Ġaccounts": 8955,
      "Ġusage": 8956,
      "Ġ09": 8957,
      "ĠrÃ©vision": 8958,
      "ĠbÃ©bÃ©": 8959,
      "ĠPendant": 8960,
      "Ġatta": 8961,
      "ĠSix": 8962,
      "Ġmunicipal": 8963,
      "Ġvitesse": 8964,
      "activitÃ©s": 8965,
      "ĠVe": 8966,
      "Ġadopt": 8967,
      "ĠchaÃ®": 8968,
      "ĠSeigneur": 8969,
      "ĠassociÃ©s": 8970,
      "ĠControl": 8971,
      "Ġchimiques": 8972,
      "ĠCS": 8973,
      "ĠUse": 8974,
      "Ġshot": 8975,
      "Ġhumain": 8976,
      "lÃ©ch": 8977,
      "Ġinvited": 8978,
      "IPO": 8979,
      "Ġstrengthening": 8980,
      "ental": 8981,
      "ĠEth": 8982,
      "ĠJul": 8983,
      "Ġmanger": 8984,
      "ĠTon": 8985,
      "ĠTrois": 8986,
      "Ġhighest": 8987,
      "ĠContin": 8988,
      "%,": 8989,
      "Ġsister": 8990,
      "ĠCust": 8991,
      "Ġras": 8992,
      "itique": 8993,
      "Ġparticipant": 8994,
      "Ã©rables": 8995,
      "Ad": 8996,
      "point": 8997,
      "west": 8998,
      "oster": 8999,
      "ĠBob": 9000,
      "itÃ©es": 9001,
      "Ġappui": 9002,
      "Ġaccommod": 9003,
      "ĠAnnexe": 9004,
      "Ġreleased": 9005,
      "letin": 9006,
      "ĠÃ©coles": 9007,
      "ĠprÃ©parer": 9008,
      "ĠSociÃ©tÃ©": 9009,
      "judice": 9010,
      "pped": 9011,
      "ership": 9012,
      "Ġformulaire": 9013,
      "Ġtesting": 9014,
      "Ġwriting": 9015,
      "Ġprogrammation": 9016,
      "Ġreplaced": 9017,
      "Ġliquid": 9018,
      "ystÃ©m": 9019,
      "oes": 9020,
      "Ġsurr": 9021,
      "ĠHam": 9022,
      "Ġrembour": 9023,
      "Ġadministratives": 9024,
      "env": 9025,
      "Ġliter": 9026,
      "level": 9027,
      "Ġexhib": 9028,
      "Ġsexe": 9029,
      "Ġenvers": 9030,
      "ĠBosn": 9031,
      "ĠÎ": 9032,
      "ĠRou": 9033,
      "Ġconfront": 9034,
      "Ġpuisque": 9035,
      "anmoins": 9036,
      "ĠColl": 9037,
      "Ġdump": 9038,
      "Ã´te": 9039,
      "ĠprÃ©fÃ©r": 9040,
      "Ġcombien": 9041,
      "ĠvÃ©rifier": 9042,
      "Ġhotel": 9043,
      "ĠFA": 9044,
      "Ġcoff": 9045,
      "Ġtelevision": 9046,
      "Ġhumanitaire": 9047,
      "Ġguidance": 9048,
      "PO": 9049,
      "nam": 9050,
      "ĠCare": 9051,
      "Ġdevelopments": 9052,
      "ĠparticipÃ©": 9053,
      "Ġobligatoire": 9054,
      "Ġrecommendation": 9055,
      "ĠRobert": 9056,
      "ĠAssessment": 9057,
      "ords": 9058,
      "ceptions": 9059,
      "TIC": 9060,
      "Ġdifferences": 9061,
      "Ġaccompagn": 9062,
      "Ġconsulter": 9063,
      "wood": 9064,
      "tically": 9065,
      "ologies": 9066,
      "Ġscreen": 9067,
      "Ġsouhaite": 9068,
      "Ġluck": 9069,
      "achat": 9070,
      "Ġ67": 9071,
      "ĠFinally": 9072,
      "Ġther": 9073,
      "ĠConform": 9074,
      "Ġadvance": 9075,
      "ensions": 9076,
      "Ġbran": 9077,
      "Ġexec": 9078,
      "tity": 9079,
      "Ġveulent": 9080,
      "Ġapplies": 9081,
      "ĠRegarde": 9082,
      "Ġactuel": 9083,
      "ĠÃ©limin": 9084,
      "ĠFramework": 9085,
      "Ġmobile": 9086,
      "cons": 9087,
      "Ġcodes": 9088,
      "ĠSol": 9089,
      "ĠGive": 9090,
      "Ġsin": 9091,
      "icide": 9092,
      "Ã©sor": 9093,
      "uxelles": 9094,
      "ĠNetherlands": 9095,
      "endez": 9096,
      "aceu": 9097,
      "Ġ64": 9098,
      "ographic": 9099,
      "Ġmechanism": 9100,
      "nÃ©es": 9101,
      "Ġbande": 9102,
      "Ġmoteur": 9103,
      "Ġoutl": 9104,
      "Ġgovernance": 9105,
      "Ġhundred": 9106,
      "enfants": 9107,
      "Alle": 9108,
      "life": 9109,
      "Ġtrack": 9110,
      "rick": 9111,
      "Ġ07": 9112,
      "olesc": 9113,
      "autorisation": 9114,
      "Ġquickly": 9115,
      "Ġcoeur": 9116,
      "ĠAppro": 9117,
      "Ã©min": 9118,
      "unis": 9119,
      "ĠMary": 9120,
      "ailleurs": 9121,
      "Ġrecovery": 9122,
      "Ġinspec": 9123,
      "ought": 9124,
      "Ġstatistics": 9125,
      "ĠPartners": 9126,
      "ĠPapa": 9127,
      "accept": 9128,
      "ĠYear": 9129,
      "Ġaccr": 9130,
      "ittees": 9131,
      "ĠPlann": 9132,
      "Ġinvolving": 9133,
      "Ġconstant": 9134,
      "ĠdÃ©mocratie": 9135,
      "appliquer": 9136,
      "Ġdin": 9137,
      "Ġdaughter": 9138,
      "Ġmad": 9139,
      "ĠAlso": 9140,
      "Ġconsumer": 9141,
      "ĠRelations": 9142,
      "ĠWashington": 9143,
      "Ġvideo": 9144,
      "MI": 9145,
      "Ġmist": 9146,
      "ĠIran": 9147,
      "ĠPet": 9148,
      "stan": 9149,
      "Ġpeoples": 9150,
      "Ġcontacts": 9151,
      "Ġaffich": 9152,
      "Ġpaiements": 9153,
      "UD": 9154,
      "tia": 9155,
      "Ġgagn": 9156,
      "Ġinstead": 9157,
      "ĠNever": 9158,
      "ĠdÃ©tail": 9159,
      "Ġchair": 9160,
      "oirs": 9161,
      "Ġkept": 9162,
      "Ġfaisait": 9163,
      "Ã´pital": 9164,
      "UC": 9165,
      "ĠMo": 9166,
      "Ã©rance": 9167,
      "Ġdevient": 9168,
      "ĠStop": 9169,
      "Ġpasseng": 9170,
      "Ġchoose": 9171,
      "Ġchoisir": 9172,
      "ĠExcell": 9173,
      "Ġdessus": 9174,
      "Ġnames": 9175,
      "ounds": 9176,
      "NG": 9177,
      "ĠCall": 9178,
      "Ġhuh": 9179,
      "osc": 9180,
      "ĠsiÃ¨ge": 9181,
      "ĠstratÃ©giques": 9182,
      "lebr": 9183,
      "Ġdisapp": 9184,
[...]
